Ġthe
Ġ,
Ġ.
Ġof
Ġand
Ġin
Ġto
Ġa
Ġ"
Ġ@
@
Ġwas
Ġ'
ĠThe
-
s
Ġon
Ġthat
Ġas
Ġwith
Ġfor
Ġby
Ġ(
Ġ)
Ġis
Ġat
Ġfrom
Ġhis
.
Ġwere
Ġhad
Ġit
Ġhe
ĠIn
Ġan
Ġwhich
Ġfirst
Ġbe
Ġare
Ġ;
Ġtheir
Ġher
Ġbut
Ġtwo
Ġits
Ġalso
ĠHe
Ġnot
ĠA
Ġone
ĠâĢĵ
Ġhas
Ġbeen
Ġ:
Ġwho
Ġor
Ġthis
Ġhave
Ġ1
,
th
Ġafter
ĠI
ĠIt
Ġtime
Ġthey
ĠT
ed
Ġinto
Ġshe
Ġ2
ĠG
ĠS
Ġother
ing
Ġwould
Ġduring
Ġover
ĠB
Ġwhen
Ġalbum
ĠR
Ġall
Ġ18
Ġmore
Ġ5
Ġthree
ĠH
Ġup
Ġout
ĠK
ĠF
Ġ3
Ġabout
Ġmade
es
Ġsong
Ġonly
Ġmost
Ġbetween
ĠM
Ġgame
Ġseason
i
Ġnumber
ĠW
ĠC
Ġnew
Ġyear
ĠOn
y
Ġ000
ĠP
Ġthan
Ġbefore
Ġ4
on
ĠN
ĠâĢĶ
er
ĠThis
Ġhim
Ġwhile
Ġwhere
Ġunder
ĠAfter
ĠL
Ġyears
Ġfour
ĠBritish
ĠD
Ġ6
Ġbeing
Ġthem
Ġused
Ġlater
Ġthen
Ġsecond
ĠNew
Ġ7
Ġ10
Ġincluding
Ġsome
in
Ġsuch
Ġbegan
Ġseries
Ġboth
e
ĠUnited
Ġthrough
ers
at
a
Ġbecame
en
us
an
Ġ8
Ġpart
Ġcan
ĠAt
Ġwell
Ġcentury
Ġagainst
Ġde
Ġno
Ġknown
Ġ/
o
ĠShe
al
ĠAs
Ġearly
Ġseveral
Ġm
b
Ġsaid
Ġ17
Ġ0
Ġthere
ĠV
ĠJ
Ġ16
Ġmany
Ġend
ĠO
Ġcity
ĠDylan
is
ĠGerman
Ġ12
ia
Ġwork
Ġfilm
Ġmusic
Ġreleased
Ġcould
Ġcalled
ĠThey
Ġalong
Ġfound
Ġthese
Ġsame
Ġ9
ic
Ġfive
ĠHowever
Ġteam
Ġso
Ġbecause
ĠMay
Ġoff
ĠU
Ġ15
Ġre
ĠSt
ĠAugust
Ġline
Ġ20
Ġrecord
ĠOctober
ĠJohn
Ġplayed
Ġback
Ġkm
ĠSh
ian
ĠY
Ġdown
ĠDuring
Ġlong
ĠSeptember
Ġaround
ĠAmerican
Ġplay
Ġuntil
Ġ%
Ġarea
Ġfollowing
Ġset
Ġday
Ġeach
Ġtook
Ġmain
t
ĠFrench
Ġsince
Ġsingle
ĠJanuary
Ġepisode
ĠE
Ġuse
ĠYork
Ġhigh
Ġwrote
Ġsouth
Ġpeople
Ġdescribed
Ġfinal
Ġincluded
Ġmillion
Ġnorth
Ġstate
ĠWorld
Ġgames
ĠNorth
ĠAn
man
Ġsmall
Ġsix
ĠUS
Ġdid
ĠStates
ĠJune
ĠBy
Ġ30
Ġreceived
Ġbuilt
ĠWar
el
u
Ġwithin
rer
ĠFed
les
Ġlarge
ĠNovember
Ġlike
Ġ11
ĠJuly
ĠZ
Ġ13
Ġrecorded
ton
ĠDivision
Ġbased
Ġname
Ġany
Ġ$
as
Ġleft
ĠAll
ĠSouth
Ġship
Ġlate
ĠIreland
Ġgroup
Ġmay
Ġalthough
Ġnow
Ġ2010
ar
Ġconsidered
Ġsongs
Ġcharacter
ĠWhen
Ġ19
ĠThere
ley
Ġanother
Ġwon
Ġoriginal
ĠMarch
Ġwar
Ġbest
Ġshow
Ġ100
ĠDecember
ly
Ġvery
Ġclub
g
Ġmoved
Ġnamed
Ġfamily
ist
ĠJordan
ĠWheeler
z
ie
Ġspecies
Ġ14
Ġgovernment
ĠApril
way
Ġbook
f
ĠCity
Ġlocal
ĠOld
ĠTown
Ġdue
Ġplace
ĠAccording
Ġtop
Ġlife
Ġworld
Ġnear
ĠCh
am
ib
ĠAlthough
Ġmuch
ĠRoman
os
Ġplayer
Ġships
Ġ[
Ġif
ĠFor
ĠHis
Ġ2009
ĠCarey
Ġside
ad
Ġmajor
Ġs
Ġcame
od
Ġeast
st
ish
ham
Ġthose
Ġt
ĠBe
ĠHero
Ġft
n
Ġlast
Ġagain
Ġwill
Ġled
Ġ]
Ġwest
Ġstorm
Ġ!
ĠNo
ĠLondon
Ġ...
Ġdeveloped
Ġeven
ĠEnglish
Ġschool
Ġthird
Ġun
ies
Ġown
ĠII
Ġrun
Ġcontinued
Ġreached
Ġposition
Ġpublished
Ġjust
ate
Ġhistory
re
Ġfurther
Ġstory
ĠNational
uitar
Ġstill
Ġhome
ation
Ġpower
ated
Ġmake
w
Ġcareer
Ġproduced
Ġform
Ġair
Ġ2006
Ġ25
Ġwhat
Ġnext
Ġsupport
Ġrelease
Ġheld
ol
Ġattack
Ġwithout
r
Ġtitle
Ġrole
j
Ġtown
Ġhalf
ĠMc
ĠTech
Ġ&
Ġcreated
Ġdo
ch
Ġvideo
Ġfire
Ġsite
ĠWith
Ġoften
Ġforces
Ġband
ue
Ġway
Ġmen
Ġgave
ab
ine
Ġperiod
ĠEngland
ĠGrand
Ġtropical
Ġhaving
Ġfew
Ġtake
Ġpublic
Ġ
or
Ġwritten
ĠState
Ġorder
Ġwater
Ġperformed
Ġchart
Ġman
Ġ2007
Ġ2008
Ġhowever
Ġaway
Ġball
Ġfree
ĠPark
Ġstyle
Ġstrong
itt
Ġprevious
ĠJames
ĠMan
Ġsystem
Ġformer
Ġyou
Ġdeath
Ġchurch
Ġhead
Ġmembers
Ġversion
Ġstarted
Ġcountry
Ġinclude
Ġeight
Ġvarious
Ġreturned
Ġguns
ĠWhile
Ã©
Ġgiven
Ġtimes
ĠRoyal
Ġland
be
Ġbecome
Ġdifferent
ĠOne
ĠLeague
m
ra
Ġ2011
Ġthough
Ġh
de
Ġson
ant
Ġfather
Ġmilitary
ĠCounty
ĠFebruary
ay
k
Ġbuilding
Ġreported
able
ac
ĠUniversity
Ġlight
Ġ23
Ġold
d
Ġpre
Ġpoem
Ġaircraft
Ġgun
Ġmm
Ġ21
Ġroute
ons
Ġshort
Ġmaking
Ġcontrol
and
ĠThese
og
Ġproduction
Ġplayers
Ġ28
Ġthroughout
ok
il
Ġacross
ĠLove
essa
Ġmatch
ĠGeneral
Ġfleet
Ġcompany
Ġ50
Ġstated
anna
ĠChurch
ĠWest
h
Ġhurricane
Ġlow
Ġwriting
Ġforce
Ġten
Ġlost
arn
Ġnight
Ġgods
Ġsuccess
ĠAl
ĠWhite
Ġamong
Ġnoted
le
ĠKing
Ġright
ĠBra
Ġpopulation
it
ĠCanadian
Ġtotal
land
Ġfelt
ard
Ġp
Ġfeet
Ġwent
Ġtaken
Ġsimilar
ath
Ġusing
Ġfollowed
Ġground
Ġd
Ġroad
ĠSomerset
Ġ2003
Ġmiles
ĠRobert
ĠRe
send
ĠArmy
Ġestablished
ĠLe
Ġwin
ĠEast
Ġpopular
Ġhimself
Ġper
Ġserved
Ġcharacters
Ġweek
ig
ĠYou
Ġseven
Ġthought
Ġ2013
als
Ġfield
Ġblack
Ġpoint
Ġ24
Ġhow
Ġdays
Ġproject
Ġplaying
Ġrange
ro
Ġbattle
Ġborn
Ġbrought
ĠRock
ĠRachel
ings
Ġweeks
ĠRoss
if
ĠMac
ĠRiver
Ġcritics
ĠMount
Ġfort
ĠVilla
Ġsigned
ĠKingdom
Ġseen
ism
Ġg
da
ur
Ġyoung
int
ised
Ġimportant
Ġclose
ri
id
Ġsent
Ġcommand
ations
Ġresult
Ġleading
ach
ĠRed
Ġtelevision
ak
Ġwhite
Ġless
ĠIrish
Ġhighway
Ġmanager
Ġaddition
ĠJack
Ġmother
Ġfootball
Ġchildren
Ġ2005
ĠBrigade
ap
Ġlocated
Ġtogether
Ġable
ĠLight
Ġport
Ġput
ĠBritain
Ġdevelopment
ĠBlack
Ġscored
ĠTo
ĠâĢĻ
Ġgo
Ġappeared
ĠCl
Ġfull
ĠAustralia
em
ĠTwo
Ġshould
hens
ĠChinese
Ġconstruction
Ġbody
ĠWilliam
ul
Ġcast
Ġrecording
Ġannounced
ry
Ġlead
Ġ200
ĠÂ£
Ġdecided
ĠSan
ĠMar
Ġwinds
Ġheavy
Ġyard
Ġdesign
Ġgreat
Ġcommon
ĠSuper
ĠHill
ĠHer
Ġme
Ġlevel
Ġage
Ġ26
ĠPaul
Ġcompleted
Ġformed
Ġgood
ĠWe
Ġdebut
ir
Ġmet
Ġleague
v
Ġcentral
Ġeastern
Ġc
Ġreturn
Ġwife
Ġforward
Ġtoo
Ġsouthern
Ġstudy
Ġleast
est
S
Ġopen
age
Ġstart
Ġ27
Ġpreviously
Ġ2004
Ġeither
ore
ĠFollowing
et
Ġexample
Ġdied
ell
Ġfourth
Ġwanted
Ġw
c
ĠQ
all
Ġpresent
Ġremained
led
Ġ29
ities
ot
ĠCanada
Ġisland
Ġco
Ġo
ari
Ġgenerally
ey
Ġlittle
ins
ke
ĠEurope
Ġpost
Ġtaking
ĠGeorge
Ġsuccessful
Ġdamage
ih
res
ĠMusic
Ġ40
Ġonce
Ġtrack
l
Ġmonths
Ġtowards
Ġworking
Ġrock
Ġmid
ade
ĠCompany
ĠNavy
ĠGreat
Ġnever
nd
Ġ22
Ġshows
Ġdirector
ĠGal
Ġhuman
Ġ00
Ġfeatures
ovic
Ġareas
ĠPolish
Ġappointed
ians
Ġpositions
Ġoriginally
Ġmodern
Ġopened
ions
ĠFirst
ĠAustralian
Ġfinished
Ġissue
ops
ars
Ġprovided
E
Ġearlier
Ġtour
Ġst
ys
ĠSe
Ġstudio
ĠRegiment
ĠFrom
one
Ġregion
Ġcoast
ĠDespite
Ġstage
Ġguitar
ty
Ġfeatured
Ġadditional
Ġmove
Ġcaused
Ġcommercial
Ġtype
ĠMichael
um
ston
Ġpossible
ĠEl
Ġ2002
Ġdesigned
ĠDavid
Ġwriter
Ġparticularly
ĠAir
Ġplan
Ġlove
ĠDe
my
ĠNicole
ĠMark
Ġsold
Ġinitially
Ġelements
Ġlaw
Ġterm
Ġabove
Ġbehind
vest
Ġreview
ĠPort
ĠMary
Ġhelp
ĠMeyer
Ġlargest
Ġdis
Ġsea
Ġcampaign
Ġ2015
Ġestimated
Ġupon
Ġlive
ary
Ġ2012
ov
ates
Ġlist
Ġget
Ġarchae
Ġdespite
Ġ500
Ġgold
ists
ĠSaint
zy
ĠBillboard
Ġwhom
ĠEuropean
ĠUK
ĠOpen
ĠIndia
ĠRoute
Ġreviews
ĠGame
Ġothers
Ġworked
Ġbelieved
Ġhouse
AF
Ġpoints
ank
ĠChristmas
Ġhours
ology
4
Ġopening
Ġdamaged
ah
ĠSR
2
Ġadded
Ġintroduced
Ġgeneral
ge
Ġrest
Ġpraised
Ġscore
ĠDay
Ġfront
ĠIndian
Ġinvolved
erg
Ġturned
Ġallowed
Ġcathedral
Ġrelationship
ĠAmerica
ĠHigh
ĠZhou
Ġarrived
Ġevents
Call
Ġjoined
3
Ġfar
Ġbar
ĠFleet
ĠSun
Ġround
Ġreligious
ments
ĠThomas
its
Ġwe
Ġbase
Ġgoal
Ġf
Ġordered
Ġmy
Ġevery
Ġperformance
ment
Ġevidence
Ġinstead
Ġspecial
Ġhit
Ġsp
Ġinternational
ĠCr
na
ors
ink
cÃ©
Ġkilled
Ġmust
yon
ĠInn
ĠSquadron
Ġtrade
ets
field
Ġking
ĠCup
Ġmi
ane
Ġwhose
Ġclass
ern
Ġmph
ized
ĠFrance
Ġwide
ĠHenry
ous
ats
Ġpassed
Ġfind
au
ĠBest
ines
ĠAfrica
ai
Ġhand
ag
Ġdate
Ġe
Ġfifth
Ġtroops
Ġservice
Ġcover
ĠNorthern
ĠLater
Ġlines
ĠWil
Ġstar
Ġlimited
Ġsmaller
ain
Ġhighest
Ġeventually
ĠMiami
ĠPar
Ġtraining
Ġarm
Ġreal
ating
ĠJupiter
ĠIsland
Ġexcav
ĠMario
ĠCharles
ne
Ġevent
Ġaction
ĠUnion
rd
ĠStar
Ġsupported
son
ĠÂ°
Ġgoals
ĠAwards
Ġmember
ĠBr
Ġ31
Ġcapital
Ġcm
ix
ĠSea
Ġnational
Ġ1960
Ġpolitical
ĠAssociation
Ġattempt
Ġcrew
Ġincreased
ĠCouncil
Ġvoice
Ġaverage
ash
ĠFe
ble
ĠSome
Ġ45
om
ĠSchool
Ġcastle
Ġwall
Ġreferred
6
ĠX
house
Ġtold
Ġnorthern
ĠAd
Ġchild
Ġlanguage
ĠTimes
Ġunits
ent
Ġwinning
ĠBrown
Ġsummer
Ġnearly
Ġvictory
Ġpast
com
ĠHouse
Ġn
Ġbuildings
ĠVirginia
ĠHorse
Ġcase
Ġpop
Ġreplaced
ite
Ġant
Ġr
ĠStreet
Ġalmost
Ġnine
ĠChe
ĠIII
ĠMany
Ġ2000
Ġshot
ĠJapan
Ġred
Ġprior
Ġsaw
Ġartillery
ward
Ġdouble
ĠTour
Ġalready
ics
ang
Ġ1990
Ġoperations
Ġofficial
ion
ĠOther
Ġnon
Ġstates
Ġavailable
ĠAtlantic
ĠOttoman
rom
ades
yn
Ġcar
ire
aw
ler
ĠMexico
Ġcritical
ĠPeter
ĠSc
ĠZealand
Ġlength
ong
ĠChristian
Ġrather
Ġvillage
ens
ness
Ġappearance
Ġb
Ġplaced
Ġcut
ĠCra
ĠPal
Ġmetres
ĠLaw
Ġoccurred
Ġclaimed
Ġnovel
Ġgod
Ġfriend
Ġ1940
Ġprocess
ling
ĠNBA
Ġsometimes
Ġentered
Ġmagazine
Ġsee
ĠKe
illo
Ġpass
lyss
ĠMy
ĠGu
Ġ1970
Ġstone
Ġidea
ĠOr
Ġlargely
ĠRoad
ans
Ġever
ric
un
Ġsoon
ius
Ġdifficult
ĠWestern
Ġsignificant
Ġmaterial
Ġsaying
ĠRepublic
ou
Le
ĠAdmiral
Ġremains
Ġinfantry
Ġforms
stein
Ġinter
ĠLock
Ġfighting
ĠThat
Ġitself
Ġart
Ġflight
Ġlaunched
Ġbecoming
Ġwestern
ĠLand
Ġended
ĠTr
Ġspent
ĠWood
5
Ġworks
Ġword
ĠLord
Ġoutside
Ġpressure
Ġagreed
Ġgroups
Ġdestroyed
Ġprimary
Ġface
Ġscoring
Ġrem
Ġadvance
Ġprobably
Ġcommunity
Ġalways
ĠMost
Ġpeaked
Ġgrass
Ġfailed
ĠInternational
Ġcontract
ance
ĠJackson
Ġfemale
ĠSpanish
p
Ġsubsequently
Ġmoving
iers
Ġturn
Ġasked
Ġstruck
ĠBay
Ġsize
ĠHaven
Ġmonth
ina
Ġusually
ĠPro
Ġquickly
Ġgive
iva
ĠAct
line
ĠCon
ĠSong
ĠBut
ĠMon
Ġchanges
Ġscene
Ġrequired
Ġyards
Ġ1995
Ġchange
ity
ĠDon
Ġproblems
ĠSte
ĠPe
Ġreport
ĠIllinois
Ġmarried
Ġproteins
mer
se
Ġdoes
amb
Ġdefeat
urt
Ġbeginning
borough
Ġ35
Ġlack
Ġregular
Ġv
men
Ġlyrics
Ġ1994
Ġfans
Ġlatter
Ġdi
Ġ2001
Ġcarried
Ġnatural
ich
Ġ1998
Ġsuggested
ĠHall
edar
ĠNight
Ġconcert
ville
Ġrecords
Ġshown
ologist
Ġ2014
ĠGod
Ġinches
end
Ġmixed
Ġprofessional
ĠJewish
Ġstaff
Ġdirected
oc
Ġsection
ĠJapanese
Ġfl
Ġforced
bar
ĠTenn
ĠAnt
ological
MS
Ġ1950
Ġbats
aj
AA
aurus
ĠAli
Ġlisted
Ġdestroy
illa
Ġcycl
Ġservices
ĠBattle
ce
Ġdirectly
Ġplanned
els
Ġplans
Ġnotes
Ġfriends
Ġlb
ĠAm
Ġuses
aine
Ġattempted
Ġstructure
mium
ĠTru
Ġmakes
ĠDepartment
ford
Ġdes
Ġsingles
Ġcomposed
G
red
Ġprovide
Ġfuture
ĠNe
Ġcertain
Ġcommented
Ġincludes
Ġcritic
ied
Ġassigned
ĠFootball
ĠCaptain
Ġran
ĠCar
op
Ġunable
ĠSince
ĠWales
Ġbetter
ĠVer
Ġalbums
Ġcreate
Ġofficer
Ġdef
Ġsides
Ġawarded
ide
ĠMad
Ġcomplete
Ġenough
Ġculture
ium
Ġfun
Ġmurder
Ġdecision
Ġparticular
Ġmajority
ters
A
ĠMe
Ġassault
Ġcompanies
imony
Ġremaining
Ġcentre
av
Ġintended
Ġinitial
Ġcenter
ĠThree
Ġha
ps
Ġgiving
ful
Ġch
ĠAnother
Ġinterview
Ġ80
Ġartist
ata
ĠTV
Ġaccording
ĠLittle
az
out
aries
ord
ĠAirport
Ġfly
Ġloss
Ġtower
ĠEgyptian
ĠBob
ĠRichard
Ġmusical
ado
ÃŃ
Ġgreatest
Ġresponse
Ġpolice
ising
Ġpeak
Ġmoney
Ġraised
Ġperson
Ġclosed
ĠPresident
Ġwriters
ĠCommand
Ġcopies
Ġinterest
Ġstudents
Ġarmy
Ġl
Ġmetal
ĠLike
ĠAward
Ġfeature
ĠAnderson
ĠLong
ast
Ġcivil
ier
Ġcovered
Ġcommander
ĠCentral
ill
ĠArchae
Ġimmediately
Ġconstructed
Ġmass
ĠChicago
ym
Ġtheme
Ġ1980
ences
ĠCatholic
ma
Ġproposed
let
Ġdraw
ca
Ġminor
ĠSl
Ġproducer
Ġjob
Ã¡
Ġstandard
Ġinch
Ġ90
Ġpositive
Ġsound
Ġmedia
ĠBl
ĠConstant
im
Ġcontemporary
Ġhold
Ġdeep
Ġ1993
Ġhour
ĠMet
he
wood
Ġaid
ut
ale
ĠUN
Ġearliest
Ġlarger
Ġmarriage
F
Ġindustry
ud
Ġnature
Ġmale
ĠEarly
Ġentrance
Ġfact
Ġsocial
ĠEn
ĠHot
ĠKil
Ġ1986
Ġquarter
x
Ġdiscovered
hen
Ġthemselves
Ġtraditional
ĠGer
ative
Ġtakes
Ġneeded
Ġreaching
Ġlikely
Ġcome
Ġexpected
oot
Ġrevealed
ik
Ġsixth
ĠSar
Ġ60
ĠParliament
Ġspacing
Ġthus
ĠQu
Ġoverall
Ġresulted
ĠRio
Ġadvantage
Ġresponsible
ise
ica
ĠAr
ĠGA
ĠClub
Ġfired
Ġcompared
Ġvia
ock
Ġbegins
Ġsets
Ġ?
Ġminutes
ĠUnder
ĠCharlie
Ġview
Ġcontains
Ġprepared
Ġappear
Ġwoman
Ġplays
Ġhorse
que
Ġcost
Ġmatches
Ġoffered
ĠBecause
ĠLos
Ġsister
ĠGl
imb
Ġstrength
ĠYoung
Ġattention
Ġfinally
Ġrelief
Ġexperience
Ġteams
Ġability
Ġtransit
Ġact
Ġprotein
ically
Ġbooks
Ġespecially
Ġdone
Ġcounter
Ġ1996
Ġattacked
Ġconsecutive
ĠRussian
Ġfruit
Ġanti
ĠMarl
Ġsub
Ġfigure
ĠJane
ĠHowe
ĠFort
ĠGermany
ision
ĠQueen
Ġtracks
Ġextended
Ġdefence
wn
ĠUn
Ġscreen
ter
Ġnames
ĠGe
ana
ical
Ġ1991
arks
Ġdirect
ws
Ġlevels
ĠRecords
Ġhelped
ĠGovernment
Ġvocal
co
Ġblue
ĠSecond
ĠIts
Ġtitles
Ġpair
Ġtorped
ĠOlympic
Ġpar
ody
Ġsolo
Ġeffects
ĠBand
Ġperformances
ĠSir
ĠNathan
Ġsign
Ġminute
Ġstarting
ĠCommittee
Ġaccepted
Ġapproximately
Ġpaper
att
qu
Ġwomen
ĠFrank
ĠInstitute
Ġprogram
Ġleaving
ĠActiv
Ġcontrolled
Ġmovement
Ġcompetition
Ġrunning
ĠHighway
Ġbusiness
Ġ1997
Ġbattery
ĠJaneiro
Ġdefeated
her
ĠCor
Ġdebuted
Ġhighly
Ġoperation
Ġstation
Ġcasualties
isc
Ġgoing
Ġconsisted
Ġwhether
ored
Ġofficially
ĠInfantry
ure
Ġgranted
ĠRob
Ġselected
Ġcaptured
Ġrelated
Ġleg
Ġamount
ĠLatin
Ġdepression
Ġmorning
Ġmeaning
ĠAlbum
Ġheavily
aster
val
ff
Ġscenes
Ġofficers
Ġbattles
Ġattempts
ĠMor
ious
Ġshark
Ġ1941
Ġruns
ĠLake
Ġmeet
Ġstoryline
ĠCourt
ĠCol
Ġfoot
Ġsinger
ĠVenus
ĠOf
bs
Ġolder
Ġdivision
ĠCoast
iny
Ġparty
ara
Ġupper
own
ĠPet
Ġcourt
ĠCold
ith
Ġthings
Ġtons
P
Ġfilms
Ġfictional
Ġweather
ĠAcademy
Ġcontinue
Ġauthorities
ĠGreen
Ġopera
Ġvariety
Ġra
Ġcomedy
Ġapproach
Ġspecific
Ġ150
Ġmanaged
ĠPat
Ġyet
Ġnaval
Ġcourse
itz
ĠAndrew
Ġdaughter
Ġallowing
ĠAvenue
Ġactivities
und
Ġserious
Ġimage
Ġcra
ĠDest
Ġcurrent
per
Ġresearch
Ġtraffic
ĠLive
Ġtwenty
Ġcad
Ġtradition
Ġtournament
Ġchanged
ner
Ġcolor
Ġspace
Ġparts
Ġtransferred
Ġvocals
ĠEarth
Ġ52
ĠYear
Ġem
Ġsites
Ġentire
Ġintensity
Ġmight
Ġself
Ġradio
ĠGulf
ĠBetween
Ġincreasingly
Ġrepresented
yson
Ġreg
Ġreach
ĠSomal
Ġdead
ĠBar
Ġcommittee
evo
Ġcultural
Ġpowerful
ĠHaiti
Ġ32
Ġliving
ĠBoth
ĠAnd
Ġconducted
Ġbrother
ama
ĠDown
Ġranked
Ġ1930
Ġmounted
Ġroom
Ġwinter
Ġalongside
ice
ria
ailed
Ġwidely
rak
Ġsentence
Ġimages
Ġpersonal
ster
Ġefforts
by
ĠAngeles
ĠBill
Ġflights
Ġepisodes
Ġrear
Ġfollow
ĠIs
Ġnearby
Ġsource
Ġrainfall
Ġassociated
Ġaudience
Ġbid
gra
ily
ĠCan
Ġseasons
hip
Ġboats
Ġhired
Ġgirl
Ġthink
ites
Ġlocation
ĠBC
Ġcoach
Ġwords
Ġdated
pping
atic
Ġgot
Ġhard
ĠDr
ĠTe
off
ĠSoviet
Ġinspired
Ġfigures
ĠHur
Ġen
Ġeducation
ive
Ġarmed
Ġsurface
Ġbecomes
Ġstatus
Ġwhole
Ġplanet
ĠEgypt
ĠChris
Ġsales
ĠSeries
ĠPan
Ġal
Ġactive
ĠCorps
Ġfell
Ġterms
Ġcriticized
66
Ġparents
ph
Ġadvanced
Ġplot
Ġmainly
Ġcontained
Ġjack
Ġreign
Ġpilot
Ġfinals
ess
ĠForce
ick
ĠRow
Ġbreak
Ġdedicated
Ġheadquarters
Ġachieved
Ġpress
Ġ1943
fall
ory
ĠMal
ip
Ġmostly
Ġdivine
Ġincrease
ĠHell
Ġelection
to
Ġcell
ĠNot
Ġshortly
Ġlower
Ġfounded
Ġselling
ĠRoy
Ġgrew
Ġapplied
Ġtrans
Ġdivided
Ġchosen
art
of
Ġearth
Ġsustained
ĠEmpire
ĠBlue
ial
Ġrefused
ĠItalian
Ġk
Ġbrown
Ġlonger
ĠSeveral
ae
ĠLo
Ġfederal
Ġbirth
ĠVideo
Ġproved
Ġpicked
ĠGr
Ġschools
Ġnumbers
Ġearthquake
ĠMa
Ġdock
ĠConference
ĠDominican
hips
ĠGroup
vers
Ġclear
ĠAss
ĠDes
Ġneed
Ġmonarch
Ġ70
B
Ġ1988
Ġremoved
Ġsituation
rib
Ġattacks
Ġproducers
ĠLady
Ġmeans
Ġeffort
Ġdesignated
Ġiron
Ġlabel
Ġnortheast
Ġwood
ĠSmith
ral
Ġcreation
Ġmaximum
Ġterritory
ren
ĠMinister
Ġshape
Ġ39
Ġla
Ġpotential
lam
Ġflank
Ġappearances
OT
Ġ42
io
Ġmountain
add
Ġallow
ake
Ġpresident
Ġkick
ĠBowl
Ġappears
ack
ret
ĠArt
ĠMountain
Ġquality
arm
ft
Ġroutes
ĠLa
Ġrespectively
Ġcent
ĠPennsylvania
Ġnewly
Ġdoor
Ġ36
Ġseparate
Ġpattern
Ġexpressed
ĠTh
ow
ĠBoy
Ġexcept
ĠAge
Ġ1982
Ġpe
Ġmiddle
ĠCivil
Ġauthor
Åį
bury
ĠCad
Ġ1999
Ġflooding
Ġissues
rum
Ġbroke
Ġhusband
bl
ĠDud
ĠMed
rog
Ġaward
ĠParis
Ġunderground
Ġpossibly
Ġmarket
Ġshaped
ĠAld
Ġoffice
Ġlived
arg
Ġ94
Ġpresence
ĠMuseum
Ġy
Ġremain
Ġ1984
ĠBulls
ĠEdward
den
Ġtried
Ġ300
Ġdrawn
ĠScottish
Ġslightly
ĠCo
Ġpiece
ĠScience
Ġspring
ani
ĠPl
Ġdefensive
ĠNC
ĠTheir
ĠCrus
rug
ĠCaribbean
Ġfood
Ġalt
ĠStudios
Ġ1992
Ġaccess
ĠCongo
aton
ĠTom
Ġbridge
Ġpurchased
Ġrequest
Ġcharter
Ġflying
ĠEx
Ġgain
Ġpasses
ropical
Ġactions
up
ĠHurricane
Ġtypes
Ġproduce
Ġlook
ĠOver
Ġobserved
ĠGolden
ero
Ġnurse
are
ĠJust
ĠManchester
Ġsays
Ġinfluence
Ġpro
Ġexecutive
Ġ33
Ġ64
Ġmeeting
Ġcoming
Ġpractice
ĠNations
ĠSociety
Ġab
Ġwind
Ġowned
Ġpark
ĠOcean
Ġvisited
Ġbroadcast
ĠEntertainment
ĠUl
ĠÃ
Ġprimarily
Ġcon
Ġfocus
mar
Ġmon
der
isation
ĠCalifornia
Ġarchaeological
ĠOslo
Ġtrue
Ġeffect
aret
ĠScotland
ĠGames
Ġcall
Ġlooking
Ġmeant
Ġour
Ġstanding
oy
Ġcause
Ġ48
Ġissued
ose
Ġreason
ĠTexas
ĠDj
Ġleave
Ġcorn
ĠUTC
oth
Ġ400
Ġpupils
Ġkey
less
Ġnarrow
Ġcharge
Ġnote
Ġexperienced
shire
ĠPacific
ĠAfrican
Ġcapture
ided
Ġresidents
Ġaccount
Ġsecurity
play
Ġenemy
Ġmarked
Ġanalysis
Ġcountries
ĠFour
Ġstages
Ġstandards
Ġextensive
Ġreduced
ger
ĠTurner
ve
Ġstudent
oys
Ġdeal
Ġknow
Ġstructures
ave
ora
ĠSo
Ġ1939
Ġroyal
Ġnorthwest
ingale
7
Ġpassing
Ġcamp
Ġindividual
Ġsoldiers
ny
Ġmo
ĠAndy
ĠJim
Ġregime
ĠMega
craft
ĠStone
Ġtrial
ĠParty
Ġpoor
Ġsh
ĠBo
oe
ĠEastern
Ġdollar
Ġsinging
Ġcombined
Ġweapons
Ġpresented
Ġstories
Ġvisit
ĠJoseph
Ġthemes
Ġ44
Ġlot
ĠMathe
Ġlaid
Ġwing
Ġscript
Ġplaces
Ġchapter
Ġdescribes
Ġbasis
ĠJan
Ġsuffered
Ġcertified
1
Ġcontrast
ĠHait
Ġ1942
Ġrejected
Ġbow
agan
Ġ1944
Ġbegin
ĠThroughout
our
Ġsurrounding
Ġwindow
Ġpage
Ġfiring
ĠArm
ĠCross
ĠImperial
ĠSim
Ġairline
Ġcross
Ġfamous
ĠFar
ĠHor
Ġreports
Ġpanel
Ġargued
Ġtur
į
Ġwrite
Ġconflict
Ġearned
ĠEd
Ġchoice
ene
ĠArea
Ġpay
ĠSomalia
Ġgained
Ġ1989
ĠPost
stone
Ġcounty
Ġfeaturing
Ġequipment
Ġcommissioned
ĠWater
Ġwant
Ġphase
Ġtoday
Ġsomething
Ġreference
alk
star
Ġbelow
Ġ1965
acks
ĠFern
Ġlosing
Ġstars
Ġyour
ĠMajor
ĠLieutenant
Ġstudies
Ġchurches
Ġtravel
Ġcalling
ĠLi
Ġgreatly
Ġbuild
ĠStories
Ġarms
ited
ĠSam
Ġscale
ally
Ġarch
Ġpenalty
ĠMore
ĠPhiladelphia
Ġleader
ĠFree
ĠSp
Ġsubject
Ġex
Ġhy
Ġbass
ĠBre
Ġformation
Ġmedieval
Ġhomes
Ġfall
wen
ĠAg
Ġtypically
ĠCastle
Ġcommonly
Ġsources
ĠSystem
ator
Ġsociety
ĠĊ
ĠGreek
Ġpaid
ile
Ġrepresent
Ġshowed
Ġcontain
Ġqu
Ġfacilities
Ġperform
Ġchapel
ĠFriends
ĠIron
Ġdance
Ġphysical
ĠHar
Ġunit
Ġcompletely
Ġhorses
ĠLewis
Ġprominent
arp
Ġdefenders
Ġofficials
Ġinside
ence
Ġpromoted
Ġscheduled
Ġbudget
Ġcontaining
Ġacting
Ġassociation
Ġbroad
rie
Ġchose
ass
Ġsquare
Ġpromotion
Ġad
ĠCre
ĠCarolina
Ġnewspaper
Ġeditor
ways
C
Ġhouses
ĠHa
Ġmachine
Ġ56
ĠId
Ġideas
Ġhands
Ġreading
ress
ĠJesus
Ġdates
Ġchief
ĠService
Ġ600
Ġstarts
Ġdomestic
Ġ1920
Ġrule
Ġcaptain
Ġcap
Ġhost
Ġmile
ob
Ġbottom
acy
Ġrapidly
ĠCollege
ined
Ġpublication
ĠBrig
Ġvalue
Ġlosses
Ġaffected
Ġtrees
ĠWitch
ĠAD
Ġdata
ĠOut
Ġactivity
Ġinitiative
ms
ones
ĠDel
ĠChina
ĠVan
ĠTor
Ġappearing
Ġ1947
Ġrights
ologists
Ġherself
ĠChart
ung
Ġtells
Ġmentioned
Ġcomic
Ġinvasion
ĠPoland
azer
Ġfloor
Ġsquadron
Ġcouncil
ĠPol
Ġtoward
igo
Ġfully
Ġholding
Ġinformation
osa
Ġoperated
Ġoffensive
Ġam
Ġheart
Ġconvoy
Ġconcluded
andez
Ġthick
Ġconditions
Ġimpact
iz
Ġadopted
Ġcombat
Ġgl
Ġdeveloping
Ġtall
ĠScott
Ġprivate
Ġshr
Ġappeal
Ġdraft
ĠStevens
Ġparticipated
Ġrh
ĠMag
Ġremainder
Ġmill
ĠDC
ĠLords
Ġboard
atus
Ġbodies
ĠYe
Ġjazz
Ġfr
Ġengaged
Ġnative
ĠColeman
Ġtoll
ĠKorean
ese
ĠWelsh
Ġfacing
Ġunknown
Ġcave
Ġsat
ĠUpon
ĠHome
Ġstay
Ġ1945
Ġdark
ĠBBC
Ġsimply
ĠMichigan
ĠLawrence
Ġorbit
Ġar
ub
Ġind
Ġscience
Ġconsisting
Ġ34
erm
Ġnumerous
Ġletter
ĠDublin
ĠAmong
arrow
ĠIf
Ġdistance
Ġsequence
ĠEver
Ġspeed
ĠWAS
Ġ120
Ġwalls
how
ĠVill
Ġunique
Ġancient
awa
Ġartists
air
oon
Ġsell
ants
rian
ĠGab
Ġbroken
Ġgenus
Ġcomplex
ĠGo
Ġbackground
Ġmoves
ohl
Ġclaim
ino
Ġsenior
Ġprojects
Ġbreeding
Ġorganized
ĠSw
Ġaltar
ĠSal
Ġindividuals
Ġ49
Ġfought
ĠSing
Ġ75
Ġabandoned
Ġreally
ĠIsrael
ĠMasters
Ġcolony
Ġdrew
Ġcombination
ĠMeanwhile
ano
ĠPrince
ĠPlayStation
N
Ġhistorical
Ġworst
Ġstand
ĠOmar
ĠThough
Ġchorus
ĠBon
ann
Ġsecondary
Ġinvited
Ġaer
Ġcollege
OC
Ġshared
Ġtemperature
ĠGordon
Ġtest
any
Ġplant
anz
ĠTri
Ġ1946
Ġstating
Ġawards
ĠOnce
Ġwebsite
Ġinfluenced
Ġ53
Ġ1949
Ġplain
Ġsit
Ġsemi
Ġentry
ĠDaily
Ġconverted
Ġmissions
ĠCenter
ĠBir
Ġviewers
Ġdisc
ĠAb
D
Ġsilver
Ġera
ĠRh
Ġrelatively
ĠStephen
Ã¡n
rey
ĠStra
Ġmodel
Ġpl
Ġidentified
ini
Ġdefense
Ġeconomic
Ġ1966
Ġsave
Ġprevent
Ġproperty
Ġ88
Ġ2016
Ġhere
ras
Ġrefers
Ġelected
ĠMTV
Ġoil
Ġvolume
Ġhistorian
hed
Ġhip
ĠType
Ġriver
Ġkeep
Ġtemple
Ġdon
Ġsupporting
uk
ĠBass
Ġcontent
ĠCap
Ġouter
Ġactually
Ġcausing
Ġcricket
ks
ĠBig
Ġbox
Ġamino
Ġserial
Ġse
Ġcoins
Ġ1971
Ġexplained
Ġsuccessfully
ĠCommission
ĠBur
Ġarrival
ĠTime
Ġfollows
ĠBow
ee
aking
Ġdaily
ĠWeekly
ĠInstead
Ġultimately
Ġdrive
Ġwrites
Ġ1972
Ġsoundtrack
Ġclubs
Ġnews
Ġcommanded
ĠBer
Ġ1951
Ġcontinues
Ġemerged
Ġresulting
Ġbriefly
Ġgreater
ĠFinals
oo
ĠTower
ĠNintendo
Ġstudied
Ġdifficulty
ĠRolling
Ġexpanded
olithic
ament
Ġrose
Ġsought
ĠFl
ĠMont
Ġ65
te
ĠBrad
mm
Ġorigin
Ġtransfer
Ġtowers
ook
78
ka
ĠGardner
ts
Ġnetwork
Ġdirection
dream
ĠPh
ver
ography
ĠFilm
Ġsc
Ġsuccessor
ĠCom
Ġquarterback
Ġromantic
ĠMer
Ġhigher
anger
dal
Ġsand
ĠAtlanta
Ġbrig
Ġdeclared
Ġmultiple
ĠWh
Ġoffense
Ġslowly
Ġspread
ĠKar
AR
Ġ1985
ĠHoward
Ġle
ĠSAS
Ġinjury
Ġrise
Ġkings
Ġcontributed
ĠPop
Ġnotable
ĠGall
Ġclosely
Ġ1955
ĠWashington
ĠAnn
ĠCreek
ute
ola
ĠMediterranean
Ġmonument
Ġending
ĠCarol
Ġhealth
Ġcharts
Ġconnected
Ġgrowth
ĠDover
Ġsupplies
isers
Ġtrain
ott
Ġpercent
Ġfaced
rers
ĠDark
ĠLiverpool
Ġhall
ĠGermans
ĠTemple
Ġdropped
rees
ron
Ġmouth
Ġagreement
Ġblock
Ġaspects
Ġactor
Ġdidn
ĠImm
  
ĠOperation
ĠLine
Ġcannot
ĠFA
ĠBefore
Ġopposed
ney
ĠLad
Ġonto
ĠâĪĴ
ĠRo
Ġheaded
Ġbeyond
Ġsyn
Ġsing
Ġcouple
ĠPope
ĠRec
Ġ110
ĠExpress
writer
ĠAnthony
Ġgeneration
Ġfan
ĠFlight
rang
Ġrival
wich
ides
Ġdu
Ġcities
Ġacts
Ġstraight
ns
ĠSimon
ĠBaby
ĠAlong
ues
bet
ĠBoard
ĠAlexander
ust
Ġrating
Ġ37
Ġpopularity
iston
ĠAfric
oda
Ġdepicted
ĠKur
ĠField
Ġgameplay
Ġcredited
Ġref
Ġcollected
ĠBen
ĠOst
ĠKat
ĠNov
ures
ĠDue
Ġboy
Ġcollection
Ġcreating
ĠEach
rets
Ġoccupied
ĠDev
Ġwave
ĠSound
Ġhop
Ġvenues
ĠBCE
Ġnuclear
rapped
Ġgoes
Ġhair
ĠBond
ĠMiss
Ġdrawing
Ġincreasing
ĠHuman
Ġfunding
ours
ning
ĠWill
Ġ1981
Ġtitled
Ġgradually
Ġauthority
Ġavoid
Ġsoutheast
ullen
Ġ38
Ġcaves
Ġsearch
Ġworkers
amp
Ġbaby
ĠInitially
Ġcovers
Ġfolk
Ġbeat
K
Ġ1987
Ġtransport
Ġmanagement
ĠMax
Ġresponded
ĠSteve
ĠVictorian
cher
Ġsomewhat
Ġsafety
Ġfranchise
Ġturns
ĠInd
Ġarts
Ġchallenge
Ġfoundation
ĠGuide
Ġrecent
Ġbrick
ĠNever
Ġobservations
Ġtomb
berg
Ġbring
ĠDirector
ming
ĠRichmond
Ġroughly
ĠStanley
ĠStorm
Ġexisting
ĠTw
odies
ĠBradford
Ġfight
Ġice
Ġfinish
Ġleads
Ġslide
Ġwedding
Ġserves
Ġlocations
Ġcaught
Ġsex
Ġapproached
ett
Ġestablishment
aim
oll
ost
Ġedition
Ġtechnical
ĠHam
ĠAustralians
iah
Ġstones
Ġorganization
ĠWhat
Ġmaintained
Ġannual
ĠStr
ĠPrior
Ġ1918
Ã¸
Ġdollars
Ġdegree
Ġbu
Ġchance
ĠNBC
iqu
ĠHistory
ĠChronic
iments
Ġjoin
Ġtied
Ġproblem
Ġgreen
Ġroof
Ġdecade
ting
Ġkilometres
ĠChrist
ĠMuslim
Ġoffer
Ġdecades
Ġconcerned
ond
Ġtherefore
Ġemployed
ran
ber
ĠPart
cake
Ġtrip
Ġlasted
uc
Ġagricultural
ils
Ġsessions
Ġversions
alle
Ġfinancial
Ġcapt
Ġobjective
Ġentirely
Ġdepth
Ġbi
Ġimportance
ĠChannel
ĠSha
Ġheard
Ġfur
han
Ġkilling
Ġseems
Ġeffective
Ġretired
Ġorgan
ĠShortly
Ġliterature
ishing
Ġlongest
Ġconcept
ĠMagic
ĠVoy
Ġarranged
ize
Ġeconomy
Ġstop
Ġ700
ĠSummer
Ġregional
Ġtree
ĠJohnston
Ġsteam
ail
ĠCommander
aker
Ġdetermined
ĠDouglas
Ġstopped
Ġ1929
ĠSch
Ġenjoyed
Ġtwice
ĠPrime
Ġwins
Ġ1914
Ġfamilies
ico
ĠEnd
Ġslow
Ġ101
Ġitems
Ġsense
ĠDaniel
Ġsigning
ises
port
Ġdoing
ĠSpace
ricanes
Ġheight
Ġ1937
ze
O
ĠJoy
Ġfemales
Ġconcession
Ġ1890
Ġhundred
Ġknowledge
eth
Ġ79
we
ĠMadison
Ġsentences
iel
Ġap
Ġportion
Ġdetails
Ġallows
ĠUs
iting
Ġcoastal
ĠAllied
Ġ96
inals
worth
ĠWolf
iece
ĠLisa
Ġways
Ġdefended
well
eller
ĠDistrict
ago
za
Ġsl
Ġchampionship
ĠReg
Ġseconds
Ġprison
Ġmatter
Ġ250
Ġteacher
ĠStory
Ġrecalled
Ġsettlement
Ġincome
Ġsimple
Ġsouthwest
L
gin
Ġdominated
Ġthousands
Ġahead
Ġfootage
ickets
ators
Ġseat
Ġcrown
ĠColumbia
ĠBattalion
Ġpermanent
eter
ĠArab
aga
ĠBridge
Ġneck
Ġcup
ĠBishop
Ġinterior
Ġarticle
ĠTim
Ġsort
Ġworship
Ġattributed
Ġfiction
Ġinland
Ġprotect
ĠCarter
ĠTownship
Ġroles
ĠCathedral
ili
Ġbit
Ġdating
Ġ1961
ĠGovernor
Ġroads
ĠDutch
Ġrace
ĠSN
Ġengagement
Ġcl
Ġassistant
Ġcru
ĠSongs
ĠSouthern
Ġincorporated
Ġextra
Ġsports
Ġrel
Ġvessels
ĠNHL
Ġtrying
Ġnothing
Ġ1975
Ġclaims
ĠJo
Ġmedical
illes
Ġauthors
Ġmovie
Ġseventh
Ġsuffering
uf
onic
Ġpath
ĠDef
Ġvehicles
ĠNorman
icks
Ġshooting
ĠEr
Ġwolf
ĠHair
Ġlearned
ĠOnly
Ġcare
Ġcult
Ġfrequently
Ġshare
Ġreplace
ĠMr
Ġreconstruction
Ġimp
Ġmartial
Ġfinds
ĠPower
Ġtwelve
ax
Ġwounded
ĠKim
Ġta
ĠThird
Ġmanner
ening
ĠForest
istic
Ġbelieve
ato
Ġau
ande
Ġ1983
Ġj
Ġlaunch
Ġhill
Ġ62
Ġdisaster
Ġmissing
ias
Ġresults
Ġwidespread
ĠChapel
ĠMcN
Ġedge
Ġshell
8
ĠCape
ĠCamp
Ġraid
Ġ800
Ġcompounds
Ġholds
Ġboat
ĠPeople
Ġguides
Ġeleven
Ġintersection
Ġbegun
ĠFurther
Ġforeign
Ġescape
Ġ57
Ġ737
Ġsucceeded
Ġplanning
Ġ1954
ort
ump
Ġcriticism
Ġfilmed
ĠTheatre
Ġurban
ĠNad
ĠML
Ġclassified
ĠAust
Ġbishop
Ġalien
Ġmotion
Ġscholars
Ġfixed
ĠBerlin
Ġ1919
Ġ95
uan
Ġguard
Ġ1969
ording
Ġpromote
Ġth
ÅĤ
Ġcondition
Ġ98
ame
Ġeyes
Ġsupply
Ġ1979
Ġdeity
Ġpaintings
ĠStation
Ġentering
Ġmark
ĠDetroit
ĠGood
ires
Ġ1936
ished
Ġwaters
ged
Ġmaster
ĠPer
Ġcharacteristics
ield
ĠGram
ĠWall
ear
ids
Ġfeel
Ġturning
Ġnominated
Ġstore
Ġterminus
Ġrespect
Ġplatform
Ġfailure
ously
Ġfresh
ski
Ġinfluences
Ġestablish
ille
Ġtypical
iff
ĠGeoff
Ġtenure
ĠIm
Ġcommunities
ĠUnlike
ĠRa
Ġus
ization
Ġcourts
cl
Ġrecently
unk
ĠMaster
Ġplants
ĠLiam
ĠCE
Ġkept
Ġinner
Ġshore
Ġwatched
Ġviolence
Ġapart
Ġassumed
Ġtr
Ġ41
ĠKent
Ġ85
ĠLl
ĠMagazine
Ġrep
Ġyellow
Ġpractices
Ġagent
Ġlives
ont
ĠOs
Ġinscription
Ġfore
ean
Ġstationed
Ġfit
ĠItaly
Ġreaction
Ġbone
ĠVal
ĠNews
Ġattended
Ġstreet
Ġsubsequent
Ġcotton
Ġteaching
ĠChampionship
orn
Ġindustrial
oph
Ġreinforce
ĠReview
back
eng
Ġdrum
rabbit
Ġmeasure
Ġbrothers
Ġeye
ien
Ġnoting
Ġconsiderable
Ġ160
Ġsuggests
ĠHoly
Ġincident
Ġshipping
ĠOxford
Ġste
Ġrural
Ġalone
Ġinstitutions
Ġcoin
Ġintention
ĠArsenal
ces
Ġgrowing
Ġmales
ices
ĠPublic
ĠKen
ĠSand
Ġrecognized
ĠRome
ony
Ġtexts
ĠAdditionally
Ġimproved
ery
ĠFame
Ġsuggesting
ĠOffice
Ġdrop
ĠGreg
ĠCarl
Ġknew
ĠReal
brace
Ġdem
ges
ĠSem
ek
yll
Ġmusicians
Ġfungus
ĠXbox
Ġ1938
Ġ#
Ġcenturies
Ġtests
bles
Ġvon
Ġbought
yg
Ġsquad
Ġconsists
Ġsay
Ġel
Ġsemif
ĠHel
ĠIslands
tered
Ġaired
Ġowner
Ġmission
Ġtry
ĠTon
ĠSunday
udd
Ġ1973
Ġbands
Ġinstruments
arch
Ġborder
ĠMike
Ġruled
ree
Ġcontroller
uri
Ġroll
astic
Ġeighth
ardo
Ġholiday
Ġsignificantly
ational
ult
Ġwinner
ĠBarry
ĠPass
Ġindependent
Ġoutbreak
atory
Ġmonuments
Ġbatt
Ġexisted
Ġ47
ĠCer
Ġportray
Ġres
ĠBa
Ġfellow
ĠMiddle
Ġextreme
ĠPopular
ĠJam
Ġclassic
Ġread
V
Ġpowers
Ġadjacent
Ġlegal
ĠSecretary
Ġpitch
ĠRas
Ġenergy
Ġderived
ĠLow
Ġregarded
Ġwarm
ĠCeltic
Ġ1915
Ġpeace
Ġoccupation
Ġpurposes
T
Ġlanding
ĠPremier
Ġdisturbance
ĠLu
ĠValley
Ġcoal
ĠAbout
ĠMitchell
Ġopportunity
yl
ĠHockey
ĠDom
ĠCard
Ġproviding
Ġcells
Ġserving
Ġsevere
Ġ1916
49
pe
head
ents
ĠHarm
Ġbill
ĠFul
Ġairport
Ġ61
Ġpossession
ĠCharlotte
Ġpunt
ship
ĠBrian
Ġ1948
Ġchoir
ĠBelgian
Ġpitched
hr
ĠRem
74
rene
ition
Ġdefined
GN
ĠHouston
Ġscholar
ender
Ġopponents
Ġfish
Ġrenamed
Ġdeaths
Ġdelivered
Ġreform
Ġdestruction
Ġskin
Ġanniversary
Ġspeaking
low
Ġwhy
Ġ1913
Ġoccasions
Ġchairman
Ġnecessary
Ġi
ader
Ġquick
Ġstarred
Ġsomeone
Ġring
Ġclay
Ġshoot
Ġmusician
ĠDream
Ġhockey
00
SA
urs
ĠNetherlands
Ġcrossed
Ġerected
ĠThrough
pl
Ġbombard
ĠOrder
ĠPalace
Ġfactory
ĠGrade
ĠCal
ĠBos
ĠHead
Ġwild
Ġ1931
Ġ1927
Ġlists
ounder
Ġfavor
Ġnormal
Ġbad
Ġopposition
Ġtax
ĠHomer
Ġjump
fa
Ġdesignation
Ġprincipal
lines
Ġpointed
ĠJersey
Ġdrove
Ġpublisher
Ġill
Ġpoetry
rons
Ġuniversity
Ġfin
arr
Ġ46
Ġworldwide
ĠChelsea
iding
Ġrecon
ta
ĠRangers
Ġhumans
ification
Ġ07
Ġstayed
ĠRocky
sey
ĠVol
ĠDo
lands
Ġseverely
Ġac
ba
Ġpartly
Ġexit
ĠSheffield
Ġorganizations
Ġreligion
elling
ĠMinnesota
ĠModern
Ġmeasures
ulu
ight
vel
ĠSpain
heim
ĠSwiss
Ġlands
ĠMart
och
ĠIndustry
Ġsplit
Ġ114
Ġcruiser
Ġemphasis
ĠHungarian
ĠUntil
ĠHarold
Ġrate
Ġcer
Ġelement
Ġconfirmed
Ġgives
Ġclock
Ġzone
Ġfarm
Ġsexual
Ġcrossing
ĠKelly
Ġcolumns
Ġden
Ġsecured
Ġplane
ĠElizabeth
ĠColonel
Ġflagship
Ġrev
Ġindicated
Ġrecognition
Ġactors
PA
Ë
ĠTer
Ġadmitted
Ġsculpture
ette
Ġwooden
ister
Ġacquired
Ġrhythm
aku
Ġdistinctive
ify
Ġfocused
mission
Ġchemical
Ġgrounds
Ġbomb
Ġpurchase
ĠBelgium
Ġ76
ving
Ġmine
Ġpatrol
Ġreceive
Ġpushed
Ġextremely
ĠDi
Ġreception
Ġequal
ĠTelevision
Ġcamps
lers
Ġinternal
Ġkind
Ġtraveled
aland
Ġpurpose
Ġrow
Ġvan
icket
ĠWeek
ĠWellington
Ġcreator
ĠSultan
no
ains
ĠAviation
adier
Ġsuggest
Ġends
aud
ĠJimmy
ign
Ġtreatment
Ġinstalled
ĠEle
ĠÅ
Ġdecline
Ġreferences
Ġassistance
ĠCricket
ider
aka
Ġstreak
ĠTrib
ened
ĠLee
ev
Ġthreat
ĠSus
ti
Ġdevelop
ĠRapids
Ġgenre
Ġrules
Ġsurvey
ĠSweden
Ġapparent
Ġcapturing
Ġfilming
Ġkg
Ġengine
street
ĠPatrick
ĠMinistry
ĠDar
Ġperforming
Ġdiscovery
ensive
Ġ1962
Ġ55
Ġnegative
eg
ĠClass
Ġcrews
Ġunusual
ĠWithin
aff
Ġbasic
Ġresponsibility
ĠPre
Ġengage
ĠAdam
Ġdramatic
ew
ends
ĠGuardian
Ġfine
Ġheads
Ġchess
ances
Ġprovince
ĠVictoria
Ġbattalion
Ġbig
Ġorders
Ġguest
Ġtable
Ġexist
ĠColumbus
ĠFantasy
60
ĠFamily
Ġnation
ĠMah
ĠWalter
ĠZoo
Ġfast
ĠBas
Ġ67
Ġpartial
ĠDan
Ġrooms
ĠDeal
arts
ĠATP
ages
Ġhits
Ġimmediate
Ġargues
Ġmode
arth
ills
Ġritual
Ġlegislation
Ġaudiences
Ġcamera
Ġsecret
ros
Ġge
ager
Ġelse
Ġjoint
ĠBoston
Ġcons
Ġcited
Ġspacecraft
ials
Ġder
Ġdiet
che
Ġpages
fl
ĠHob
oud
ĠRadio
Ġminister
Ġbl
Ġbasketball
itions
igate
Ġ-
Ġalternative
ĠKings
ĠMagn
Ġrelationships
Ġop
ray
power
Ġcurrently
Ġ1977
Ġelectric
Ġdescribing
Ġocean
Ġoccurs
iv
heastern
Ġdismissed
scriptions
Ġleaders
Ġsystems
Ġmoment
Ġsons
Ġburied
Ġseparated
utz
Ġmeetings
Ġdrama
ĠJay
orous
ĠPalestine
ji
Ġentitled
Ġcontinuing
Ġsky
ĠJason
ĠBelt
Ġunsuccessful
Ġadministration
Ġthreatened
ĠEducation
Ġfee
izing
Ġimpossible
Ġtwin
Ġ1880
Ġforest
ĠPeninsula
oh
ull
Ġseeking
Ġtrials
over
ured
ĠLooking
W
ha
Ġammunition
Ġexplains
I
ĠLeon
Ġsession
Ġsisters
ert
ĠTrans
Ġdetailed
Ġreturning
Ġtask
ĠMilitary
ĠAthletic
Ġstem
Ġaged
Ġ1976
Ġproducing
Ġbr
ĠGirls
Ġobtained
ĠFlorida
Ġadding
Ġdecorated
ĠBart
Ġspaces
Ġgetting
aged
Ġacres
Ġpag
Ġ130
ĠGrace
ĠGibson
ĠAsia
ging
Ġbringing
oor
ĠKhan
ĠDNA
Ġevening
ĠJuan
40
ĠMarg
Ġpopulations
Ġgovernor
Ġbell
Ġinterested
atch
yme
ĠBro
Į
ĠKong
ayer
anks
Ġdev
Ġmemory
arc
Ġgray
Ġdocuments
Ġdie
teenth
Ġmagazines
Ġintensified
Ġfilled
Ġhonor
ĠOriginally
Ġfashion
Ġmoral
Ġdetail
Ġrapid
ival
ĠWing
ĠCong
Ġamateur
ots
ĠAsian
Ġgr
Ġhol
ered
Ġviews
Ġescort
Ġfirm
ĠMin
Ġaddress
Ġfounder
ĠResearch
ĠGot
ĠUp
Ġquestions
Ġaccompanied
ĠRose
Ġbillion
ĠWilson
Ġprotection
Ġche
Ġstrike
Ġsubstantial
Ġacid
Ġdriven
gr
ĠStyle
ĠSoon
Ġhear
ita
ĠMartin
Ġterritories
Ġpainted
Ġseeing
Ġweak
Ġstr
pol
Ġro
Ġgrain
Ġinvolvement
Ġdivisions
ĠKa
Ġspecimens
ĠSur
ĠGilbert
ĠNick
CL
ĠOntario
Ġattached
Ġenemies
ount
Ġengineering
Ġmissed
gs
Ġadventure
aph
Ġelectronic
Ġeverything
me
¯
Ġlearning
ace
ĠBath
iser
ĠAlan
Ġobjectives
etric
Ġdefinition
Ġstruggle
ĠDevelopment
ĠTaylor
Ġcollapsed
Ġmaintain
Ġpolicy
Ġtemples
Ġplum
ĠKey
eros
Ġpossibility
Ġte
Ġplatinum
ible
Ġcas
sel
cru
Ġkeeping
Ġreviewed
yard
Ġfields
OK
ĠCampbell
Ġ1959
Ġacademic
Ġessential
Ġequ
ĠSav
Ġtone
20
Ġzinc
ĠCategory
ĠWay
Ġassist
imet
Ġwearing
Ġretained
ĠToronto
ĠIV
board
Ġpieces
ĠSub
Ġsang
Ġag
ck
Ġrepresentative
Ġdistributed
Ġwars
Ġrich
ĠCorporation
Ġgoddess
ĠJe
M
Ġatt
elled
Ġ1953
Ġinterchange
Ġperhaps
Ġtell
Ġfuel
itation
ĠBanks
ĠDot
ĠWilliams
Ġensure
Ġresistance
ĠPrincess
Ġshells
Ġim
Ġaccept
the
Ġ1935
ĠAre
Ġbeam
Ġ1958
Ġshowing
erman
Ġobjects
Ġones
Ġsecure
ĠDVD
Ġintroduction
Ġaudition
Ġinvolving
ĠHarrison
Ġsymbol
Ġshots
Ġstreets
Ġshrine
isions
Ġfeeling
ritic
Ġopponent
Ġacids
Ġrecommended
ada
Ġethnic
Ġciting
Ġcandidate
Ġpoems
ĠJohnson
ives
amed
Ġgust
ĠRomania
Ġforcing
Ġperiods
Ġcarved
ĠNASA
Ġfavorite
Ġmask
Ġlooks
Ġrifle
Ġarchitect
Ġstrategic
ĠStop
Ġ1911
aut
ĠSn
Ġoccur
Ġsurrounded
Ġcirculation
aba
ased
ĠGary
Ġfinishing
la
Ġsitting
Ġphone
abb
ĠRomanian
Ġconsole
ball
ĠBack
ĠKirk
ĠVirgin
ef
Ġtheory
ĠCob
wick
Ġrestored
Ġapproved
Ġaviation
ĠWho
Ġ1952
ĠJacob
ĠMill
Ġtape
nell
Ġdepartment
Ġlaboratory
Ġgates
Ġreputation
ĠCle
Ġownership
pp
Ġ1926
Ġportrayed
Ġ43
ĠHaving
Ġprofessor
ug
Ġoption
Ġprotected
ĠJean
Ġconcerns
side
ĠRam
Ġcruise
Ġflew
Ġprogress
Ġgor
ael
ĠMassachusetts
ati
Ġ51
Ġtarget
Ġstatement
zer
fully
Ġ06
Ġaccompanying
Ġarchitectural
ĠEagle
Ġclassical
ĠRod
Ġcredit
Ġtonnes
Ġcaliber
Ġscattered
0
Ġsurvived
Ġduo
ships
ĠSquare
Ġlaws
Ġliterary
Ġbrief
uous
Ġreader
ring
Ġtext
Ġtopped
Ġcontroversial
ĠCab
Ġquestion
Ġopinion
Ġdialogue
ĠMaryland
Ġ1917
avan
16
Ġ240
iter
Ġprovides
Ġstruggled
ĠMargaret
ular
Ġblockade
Ġadapted
ĠLud
Ġchanging
ual
Ġwants
ĠHere
Ġ82
Ġoct
Ġreviewers
eration
Ġbird
Ġsolar
Ġdrums
ena
ki
Ġcommitted
ĠTales
54
Ġoriginated
Ġrealized
ĠSwedish
Ġtechniques
Ġvision
Ġsignal
Ġrelative
Ġcarrying
Ġfrag
Ġmean
rÃŃ
ĠSuch
ĠHeaven
Ġsurviving
Ġloan
li
Ġreceiving
Ġ360
Ġstations
unch
ĠRevolution
Ġcontest
Ġcarry
Ġnormally
Ġhistoric
Ġformerly
Ġparties
Ġproposal
ĠAng
Ġbirds
Ġ1909
Ġ54
Ġsout
ĠArthur
Ġdry
ĠDefence
ĠFil
Ġhero
Ġvessel
ĠGuild
ĠMarsh
ĠLin
ified
Ġdistrict
Ġcapacity
ays
Ġcapable
ura
ĠMVP
Ġdemand
eman
ĠThen
H
ĠCD
Ġstrengthened
ĠVe
Ġcommission
ĠMontreal
ĠNO
72
ĠDS
Ġdepicts
pack
Ġcat
Ġpowered
Ġrebuilt
Ġpoet
Ġverse
Ġwatching
Ġlooked
Ġserve
Ġcraft
Ġcolour
Ġpublishing
ique
Ġdefeating
ĠBlood
Ġrecognised
Ġhousing
Ġarc
Ġkill
Ġpairs
ĠJournal
sh
ĠTwenty
Ġatmosphere
Ġpassage
Ġintersect
bo
Ġcharges
ĠKorea
Ġcases
Ġconservation
Ġlearn
ĠBal
ĠSix
ples
Ġthrone
Ġresigned
Ġ+
Ġshut
Ġclaiming
uchi
Ġcomes
Ġdeparted
Ġdemonstrated
ipel
Ġdoesn
Ġtanks
ĠJulian
Ġdriving
Ġrarely
ĠDean
Ġactual
ĠCam
Ġgrows
ĠFraser
Ġarchitecture
ĠTracy
Ġports
Ġass
ĠPersian
Ġdownload
Ġdiscussion
Ġdeck
Ġtom
Ġinnings
ĠMir
ĠDave
ols
Ġceremony
ĠEg
Ġbelieves
Ġadvertising
Ġruler
ĠChief
ographer
ĠMat
Ġbeats
ĠFront
Ġsteep
ilis
Ġgal
mun
ports
Ġcarbon
Ġcur
ĠCommonwealth
Ġmovements
Ġlet
ĠProtestant
pan
Ġdesert
ĠErnest
Ġassassination
Ġtale
Ġdra
Ġjunior
Ġformat
Ġcontroversy
Ġformal
Ġdenied
ilda
ĠRussia
alt
Ġjourney
31
ĠSamuel
ĠEve
Ġdressed
Ġhundreds
Ġcorner
ĠMD
ety
acked
Ġrare
ll
Ġbearing
ĠKrist
olia
Ġarrangement
ĠSov
ĠGround
Ġinjured
Ġvice
ĠAround
Ġdeclined
Ġoldest
Ġengineers
ancel
ĠProject
Ġdecom
ĠHope
water
Ġfox
ĠSuperman
Ġsatellite
ĠFr
umberland
Ġret
Ġrecovered
Ġrevolution
rest
Ġinfrastructure
con
ĠBeer
ĠÃĹ
belt
Ġleadership
ĠToday
Ġdiameter
Ġbelief
arden
iets
eb
ĠRidge
Ġanything
ĠCountry
Ġdesire
Ġsuper
ington
Ġgrand
Ġcolonial
Ġdog
ĠEarl
9
Ġfallen
Ġpo
Ġupset
Ġflood
ced
Ġsiege
Ġformally
Ġcore
ively
ĠMoore
Ġsurrender
Ġcal
ĠAk
onica
ima
onia
ĠArch
Ġpistol
iders
ĠJerusalem
Ġmin
ĠMotor
Ġfailing
AS
Ġmyth
Ġsubmarine
ĠKn
Ġmedium
Ġfalling
19
Ġconsent
Ġbeach
Ġmix
ĠSaturday
rop
Ġflow
Ġbatteries
Ġparallel
ĠCrown
band
Ġtowns
ĠThose
Ġprove
ĠNow
ĠSMS
Ġpick
Ġdocumentary
Ġstudying
ĠJes
ining
Ġ1974
Ī
Ġthin
Ġ1978
ĠArts
lan
Ġduration
Ġcollaboration
ĠCommons
ĠCount
Ġlit
ĠWatson
Ġstadium
Ġemperor
ĠHow
ĠNS
Ġsharp
ĠForm
ĠJun
ĠNorway
Ġresumed
Ġyounger
Ġrescue
ĠFederal
ĠLincoln
iness
ss
ĠPen
aining
ĠBranch
ĠPhil
Ġplus
ĠDuke
Ġed
Ġpine
Ġcommunications
Ġcleared
Ġdepending
Ġconclusion
Ġ1000
elle
Ġleaves
une
ĠCanal
Ġchannel
anga
ĠDyn
ough
Ã¨
Ġpursue
Ġsetting
Ġbreed
ads
ĠWikipedia
ĠBurn
Ġneither
Ġhappened
Ġrequested
Ġ1963
ĠJeff
ĠJanet
ĠOur
opter
Ġpersonnel
Ġpainting
ĠMint
Ġ86
Ġtaught
Ġnone
Ġoccasionally
ĠAML
Ġcorrect
Ġdecides
asc
ĠGlass
Ġhosted
Ġshares
ĠHorn
ĠLate
pt
Ġextent
ĠSwitzerland
Ġdent
Ġranging
Ġtele
Ġspecifically
Ġgrant
Ġbuoy
ĠHampshire
J
ĠFast
Ġgrandfather
Ġactress
Ġtours
Ġpilots
ĠAnne
akes
uler
iles
Ġcontribution
ĠJos
Ġguidance
Ġtail
ĠMets
Ġinstance
ality
Ġowners
illing
Ġisolated
asty
Ġskull
uit
ards
Ġdorsal
ĠHudson
ĠNevertheless
aves
roy
Ġwhilst
Ġrub
ĠCrit
ds
Ġund
70
Ġdistribution
Ġsoil
Ġarrested
Ġsoul
Ġmotor
ole
Ġanime
Ġharbour
Ġburned
ĠFestival
Ġenvironmental
Ġboys
Ġcold
act
Ġchapters
Ġwatch
ga
Ġhum
Ġstrongly
aria
oms
Ġyouth
fields
Ġminimum
Ġtreated
ĠAircraft
53
ĠPr
Ġhoped
ark
Ġtools
uter
ĠUnit
ĠIsraeli
Ġfrig
gal
yer
Ġmixture
ĠCambridge
ĠTony
Ġexposed
Ġrail
Ġbones
anti
aire
ĠSurvey
Ġthing
Ġrecordings
ĠWu
ams
ĠMile
oman
inc
Ġcabinet
ind
acre
Ġregiment
oss
Ġsiblings
Ġweapon
ĠBrothers
ĠAlso
Ġprevented
Ġthirty
Ġtank
aders
Ġwaiting
Ġconquest
Ġattracted
acle
ĠArtist
ĠMans
ĠTan
Ġeffectively
Ġgenres
ĠWind
Ġunderwent
Ġsubmar
Ġphrase
ĠDanger
Ġdisplaced
Ġcircumstances
ede
Ġpushing
rec
ĠRain
Ġ1900
ippy
Ġsector
ĠTop
ĠCleveland
Ġlanded
ĠEven
arian
ĠAz
jin
Ġ1921
Ġmulti
ĠBloom
Ġshop
ĠBlues
ĠWang
ĠPete
ĠWeather
Ġbeating
iring
Ġcounties
Ġclosest
ĠPo
ĠJew
Ġsafe
inus
ĠTrophy
ocks
ĠWriting
apper
Ġexpedition
Ġcomputer
ĠMemorial
Ġmeasuring
Ġflesh
Ġtemporarily
ĠPlay
Ġfourteen
Ġremove
ĠGrey
Ġsailed
ĠPrize
Ġblood
Ġamid
Ġgarrison
uth
Ġstep
Ġ1968
Ġmassive
ĠProm
Ġbrigade
ĠTra
Ġsuccession
ĠRyan
Ġblocked
Ġmap
omer
ĠEnterprise
Ġneeds
Ġbulk
ĠAnglo
ĠMuch
Ġvolumes
Ġweekly
ĠFeel
aks
Ġsupporters
Ġstyles
Ġproper
Ġencountered
ĠFinland
iot
Ġweakened
landers
Ġcloser
Ġba
ĠOh
ĠBank
ĠDam
Ġmobile
ĠPhilip
Ġtasked
Ġpiano
Ġfunds
ĠRev
Ġinfluential
Ġimprovements
ison
ĠWatch
aws
Ġresources
Ġmar
Ġph
ĠHollywood
ken
Ġislands
ĠMerr
ĠMontana
ĠInterstate
Ġeasily
Ġdestination
Ġ91
ĠBat
Ġvictim
Ġafterwards
Ġdec
ĠMes
Ġlegs
Ġburial
jo
ĠBru
ĠPi
²
ĠDrive
inai
ĠAst
Ġaccused
Ġlayer
Ġattempting
ome
Ġcomposition
ĠInter
Ġhills
hm
ĠStadium
ĠPortuguese
Ġpreferred
Ġtriple
ĠHal
ten
Ġmanga
ĠPa
Ġhospital
FA
Ġdescribe
Ġcargo
Ġjournal
Ġpotentially
Ġdelivery
Ġradiation
Ġdraws
ering
ĠBox
Ġpoly
space
Ġheat
ĠGeorgia
ĠFoundation
ason
CA
ĠGamb
ĠFarm
Ġcontact
Ġ900
Ġ93
ĠWagner
Ġprofile
romes
Ġrepairs
ux
Ġride
Ġ1901
iss
Ġrailway
Ġmel
Ġchamber
ĠPeters
ĠKarl
Ġextend
Ġteach
Ġairlines
Ġmoon
Ġrain
ĠOff
Ġpolyg
Ġlinked
Ġtempo
ĠLiberal
ĠClinton
Ġrated
Ġpatron
Ġequivalent
ĠTa
Ġmuseum
naissance
iant
Ġboxing
56
ĠPers
ĠDen
Ġspur
Ġoffshore
Ġteachers
Ġsituated
Ġ89
ĠâĢľ
Ġregions
Ġrape
Ġwithdrawal
Ġsending
ĠStan
ĠMeg
Ġdynasty
Ġcutting
Ġongoing
fess
Ġratings
ĠRaymond
ocese
Ġcreative
ames
ĠNor
ries
Ġbarr
ĠFox
oni
Ġmushroom
Ġcovering
illery
ĠNielsen
Ġoak
Ġdebate
Ġdiscussed
Ġrecovery
anning
Ġclothing
Ġtournaments
ribe
Ġteeth
Ġassembled
Ġninth
ĠOwen
Ġbatting
Ġwet
ĠDeep
mith
Ġfrequent
Ġconsider
ĠTogether
Ġmatters
cy
ĠJac
ĠBed
ĠTem
Ġ355
Ġroots
Ġinitiated
Ĥ
Ġash
ĠThompson
ĠArabic
Ġconstant
Ġrays
ĠRes
Ġsole
ĠMidd
Ġencouraged
soft
Ġcollaborated
Ġ09
Ġprop
Ġspend
Ġstrongest
Ġmethods
Ġtou
Ġshift
Ġgiant
Ġbehaviour
Ġdescription
Ġarrive
Ġfill
Ġunlike
pr
Ġbound
Ġ1957
Ġent
tar
Ġstring
room
ĠEric
Ġunion
Ġbridges
Ġrounds
ights
Ġpregnant
onym
ĠEuropa
39
Ġevil
Ġreactor
Ġarrangements
Ġgoverned
ĠGate
Ġlawyer
Ġren
Ġchoose
Ġbank
Ġscientists
Ġforty
Ġly
Ġsweep
amoto
ĠGold
tern
ched
Ġdonated
ĠDraft
ĠPag
Ġvoted
elin
ĠBel
ĠScandin
ĠList
ĠPione
ometric
23
ĠCommod
Ġemployee
Ġdeliberately
Ġcalls
Ġideal
Ġprisoners
wild
Ġtouch
Ġhoused
Ġrevised
ĠWomen
Ġmodels
Oct
ĠOriginal
Ġwalk
Ġpound
Ġrepresentatives
ĠRog
Ġcharacterised
Ġspecimen
Ġbaseball
Ġasserted
Ġtechnique
Ġdress
Ġhull
Ġvisible
Ġmaterials
ĠLamb
ĠBod
ĠCome
yr
Ġ118
Ġplanes
Ġbelt
Ġappoint
ula
Ġ243
Ġvictories
Ġcolumn
ume
bon
ĠTurkish
Ġeighteen
Ġpermission
Ġselection
ĠMurray
Ġwore
Ġwritings
ĠKal
Ġwider
ira
Ġattained
ĠTrail
Ġsignificance
annah
ĠCro
Ġdealt
ĠEp
Ġpale
77
Ġext
Ġsn
ĠCast
Ġsixteen
Ġ68
Ġpr
anta
Ġdirectors
ĠRafael
Ġcomed
Ġlowest
Ã³
ĠLife
ĠCongress
Ġ106
Ġcatch
Ġframe
Ġregularly
Ġexterior
ully
Ġretirement
inn
ĠTrade
ales
Ġhabitats
Ġ05
Ġmemorial
Ġ117
Ġclothes
Ġsupernatural
Ġmg
Ġ72
Ġphenomenon
Ġkun
aced
Ġtennis
Ġviewed
Ġfinding
Ġflat
era
eder
Ġanth
ĠFrederick
Ġinteraction
Ġobvious
ĠMatthew
Ġcard
Ġquite
ĠBald
Ġwasn
Ġindicating
Ġtalent
ĠCO
ended
ui
Ġembarked
Ġanimal
Ġorchestr
Ġranges
ec
Ġord
Ġattackers
Ġdesigns
Ġpropaganda
ĠSingh
ĠThailand
unes
Ġmind
Ġbenefit
Ġsufficient
ĠBad
Ġpresentation
Ġoffices
ĠLast
Ġcharacterized
Ġemergency
Ġbreaking
Ġexamples
reb
Ġindicates
ĠRecord
Ġlane
79
Ġpoorly
Ġpremiere
Ġclimate
Ġfame
ading
ĠFinal
ĠPerfect
Ġconsequence
42
Ġ1889
kes
Ġduties
Ġsequences
ky
Ġtouchdown
ĠLas
ĠExecutive
Hg
emas
Ġinteresting
Ġindicate
Ġpremiered
Ġtwentieth
Ġreleases
Ġdel
ala
Ġglass
ĠMid
Ġspaced
Ġaccounts
Ġpassengers
Ġrisk
Ġtend
ĠBristol
Ġrac
Ġhighlighted
Ġinclusion
ĠPakistan
ĠLocal
Ġvisual
Ġsolely
Ġdefending
69
Ġtechnology
Ġsunk
ĠRom
Ġselect
Ġstands
ĠFord
Ġriding
ĠAustrian
ĠChild
Ġnarrative
Ġsporting
Ġseriously
Ġfer
Ġabsence
Ġchildhood
Ġvirtually
Ġgirls
jan
ĠZag
Ġwindows
Ġvideos
nal
Ġmethod
ĠTen
ĠJosÃ©
Ġsteel
Ġoverwhelmed
ĠTokyo
Ġ04
Ġ319
Ġfloors
Ġhorn
ĠBrooks
bed
Ġdetermine
Ġconference
Ġairports
Ġ1967
ĠRich
Ġshallow
Ġconnects
ĠEmily
Ġspores
Ġsearching
ĠSyria
ĠNeil
ĠBaltimore
Ġrivers
Ġengines
Ġpublications
ĠMall
ĠHay
kh
ĠHan
leg
Ġreasons
Ġrates
ĠMel
ĠRoger
ache
Ġroller
Ġclasses
Ġdifficulties
ĠHod
ĠStanding
ĠIndependent
Ġopposite
ref
90
Ġtribes
ubs
uff
Ġelections
eling
ĠSin
ĠFear
Ġ1964
Ġspending
Ġda
Ġdiscuss
ivity
Ġsur
ĠJohnny
Ġshorter
ove
Ġmag
Ġartwork
Ġinstitution
ĠSk
ĠLanc
Ġattend
Ġexplore
ĠSon
Ġaboard
Ġinventory
Ġnewspapers
lect
lo
auf
Ġgrey
Ġherd
Ġscholarship
67
Ġtrick
ĠBorn
Ġhabitat
Ġintens
Ġfeelings
ram
ĠCorn
Ġfate
ht
ya
Ġarmor
Ġcrowd
ĠDuchess
Ġdowntown
ĠMother
Ġpriests
fe
ĠOperations
ĠIndeed
med
Ġheritage
ĠMich
ĠSu
Ġvaries
ortal
ĠPeriod
idae
Ġfloods
Ġdisplay
uez
Ġconjunction
ĠDis
Ġinhabitants
Ġpartially
ml
ĠAnton
ois
ĠMayor
Ġrec
ĠEmperor
aden
Ġdaughters
Ġoper
ĠBrowns
ĠJustice
Ġabolition
rem
Ġinstrumental
Ġdispute
Ġsailors
Ġdecisions
Ġcomments
Ġdist
ĠHistoric
Ġlion
hes
ĠAh
Ġrepair
ĠTu
Ġremarked
Ġbelieving
Ġmainland
Ġintense
Ġinterpretation
Ġoperates
Ġthereafter
ĠEighth
Ġtouring
Ġtruth
Ġprogramme
ĠFred
Ġchampions
Ġcharacteristic
ĠBusiness
ĠHen
Ġpersonality
ĠGlasgow
Ġfaces
ought
onial
Ġcentered
Ġcontinental
ĠRos
ĠImport
ĠLorenzo
Ġtooth
wing
Ġranking
ĠPoint
umps
ĠNaz
Ġelsewhere
Ġsend
eld
ĠEvening
ĠRussell
Ġcelebrity
Ġfri
Ġtrouble
Ġacted
bbie
Ġidol
Ġestimates
Ġhelping
tt
ĠRhode
Ġgets
lee
Ġpun
ĠHospit
ding
ĠDarwin
Ġ175
30
Ġflash
Ġrising
orship
Ġfear
Ġtra
Ġicon
ĠAlb
gen
Ġhur
Ġfestival
15
Ġreporter
ĠThai
ĠKeys
Ġguitars
Ġrough
ĠGun
Ġlog
ĠSports
Ġrush
ĠWal
Ġcollect
Ġmat
ĠGalile
Ġdissolution
Ġtextile
Ġplacing
Ġasking
Ġcompletion
ĠLes
Ġexpansion
Ġfactors
ĠSak
Ġrequirements
erv
ĠPra
Ġfeels
Ġ03
Ġdeeply
Ġuncertain
ĠIT
Ġfins
22
ĠKenneth
aco
uz
51
ĠFederation
Ġcorridor
Ġsun
ĠBernard
di
Ġjudge
ĠFair
Ġexecuted
ĠMexican
Ġpriest
Ġnotably
ĠHard
ĠSab
Ġextension
ĠSeason
Ġempire
Ġeducational
Ġ1895
Ġsupplement
ĠBrighton
Ġmoments
ater
Ġstatute
Ġnest
ĠDem
iled
Ġdemon
ĠAv
ird
ĠShakespeare
Ġshaft
ĠNazi
ĠHop
ĠWells
80
Ġdigital
Ġunrest
Ġsoft
bot
É
Ġmeets
ĠTrust
ĠLarry
Ġamongst
Ġgaining
ĠLesser
ĠDun
Ġ217
ĠSixth
ĠSay
Ġorganised
Ġsubmitted
Ġfret
ĠEvans
Ġpreserve
ĠJenkins
Ġaim
ĠMen
ories
ĠHistorical
Ġpulled
Ġcoup
89
ĠTal
Ġbold
Ġsegment
Ġcrime
Ġadult
ately
Ġreplacement
eric
Ġready
Ġgone
Ġtyp
ĠTrials
35
Ã©e
Ġdivorce
59
Ġ1861
oad
ĠVice
Ġaccurate
ĠBarker
Ġchallenged
Ġemphas
ĠStudio
44
Ġwarning
berger
ĠInc
Ġneutrino
Ġ1932
ĠTs
Ġinsisted
Ġ1892
ĠAllen
ĠSony
Ġchronic
ĠAdams
ĠPhoenix
Ġcriminal
ĠHart
Ġnavy
Ġrestoration
uary
ĠTeam
Ġraising
Ġsurprise
itches
ĠCentre
Ġwives
10
Ġbond
Ġadaptation
Ġ1888
Ġ1870
ĠChristopher
ĠIsle
Ġrequires
Ġnumbered
ĠGib
ĠErik
Ġhitting
Ġcriticised
usa
ĠMedia
Ġconvention
Ġsw
ĠAlger
Ġfaith
Ġtraded
Ġhorror
Ġfunded
ĠMobile
Ġlake
Ġwanting
Ġpredicted
ying
ven
Ġsounds
Ġnegotiations
Ġrele
ĠPeng
Ġwhereas
Ġsal
11
ĠChampionships
ilt
Ġpreparation
Ġtravels
ES
Ġvary
Ġenter
ĠDiv
Ġconcerts
ho
ĠMiller
Ġinterpreted
Ġresidential
ĠDavis
ifer
ĠHo
Ġseemed
Ġrituals
ĠOp
Ġcompliment
Ġmedal
ĠHarry
Ġdepicting
Ġvillages
Ġparish
Ġvictims
Ġsta
ĠThus
ĠOg
Ġne
agogue
ep
ami
ĠConservation
Ġint
Ġpolitics
stra
Ġgenetic
Ġmessage
Ġsure
Ġcompilation
Ġtip
Ġload
ĠPlayers
Ġlay
ĠKo
ĠKeith
Ġbranch
ĠConf
Ġexistence
ĠCa
ker
vin
ĠFive
ĠCarn
Ġviol
ahl
Ġbay
Ġslopes
len
ĠCons
Ġcharity
Ġsings
Ġ1956
ĠMission
Ġplanets
rait
Ġretreat
ĠGregory
cent
Ġ1910
ĠWithout
Ġsettlers
Ġaccommodation
Ġassisted
ĠAlbert
ĠElectronic
Ġhope
var
Ġcinema
Ġcoaching
ĠGarden
Ġgang
ĠIndies
Ġdesigner
Ġ69
Ġspeech
ĠPlayer
Ġdeemed
Ġexplain
Ġfifteen
ĠAle
Ġ02
Ġbombers
ĠMyc
Ġban
Ġapproval
Ġtalk
western
Ġaimed
Ġconvection
Ġmechanical
Ġproperties
ĠFrancisco
Ġprolific
ĠManual
ĠMurphy
amic
org
ĠOrlando
ĠVolunte
ially
Ġlisting
Ġedit
Ġsimultaneously
Ġreflected
Ġconstantly
Ġannouncement
Ġins
Ġlord
Ġdressing
Ġbiography
Ġmac
Ġopportunities
ĠSit
Ġsurvive
Ġsail
73
Ġproducts
Ġfe
ĠChildren
Ġcolonies
eville
ĠMumbai
ĠTerritory
Ġposted
Ġdisease
Ġsingers
Ġsaves
Ġboundary
Ġstarring
ĠÃħ
ĠBeing
Ġdoubt
Ġvisiting
Ġinc
ito
Ġgovernments
Ġprompted
ori
ova
Ġoperate
ĠBi
work
Ġexhausted
ĠMoh
ĠHeart
Ġoriented
ĠStay
Ġfewer
Ġ71
ĠKit
ĠKatherine
ĠCatherine
ĠTell
Ġadults
Ġcitizens
arded
Ġfinale
Ġ1933
Ġnor
ox
Ġeasy
ĠAlex
iest
alling
ĠRonald
olog
Ġarmies
Ġrivalry
Ġwarned
Ġbutton
Ġroadway
ĠPri
Ġmeasured
96
Ġexperiences
Ġreality
Ġsuspended
lem
ĠBuddhist
Ġmodified
ĠBang
ÅĦ
ĠRivers
Ġpercentage
Ġunderstanding
Ġhousehold
agu
Ġmeat
ĠLN
Ġhighlight
Ġimprove
Ġglobal
Ġprobe
Ġspiritual
Ġidentical
Ġsk
ĠBook
Ġqueen
Ġsacred
ĠHindu
ĠMoon
Ġtherapy
Ġconcerning
Ġsale
ipped
Ġmortar
Ġexped
ĠAbraham
Ġreserve
Ġcolored
ĠAssembly
rez
ĠGerald
Ġsupposed
Ġoutlined
imer
ema
ĠJudith
ĠReed
ĠNaval
Ġopposing
Ġprovincial
ĠHubbard
Ġaftermath
limited
Ġexhibition
97
ĠNam
ando
ĠSuff
Ġrank
Ġstable
ĠAttack
Ġvault
ĠMatt
Ġearn
ĠKet
Ġranks
leton
Ġjournalists
08
Ġtactics
ĠLiz
Ġrequire
usion
Ġvegetation
owski
Ġlanguages
Ġnomination
ĠTreaty
Ġconventional
ĠGill
antly
Ġreplacing
ĠDJ
Ġorigins
rol
ĠSteven
Ġcancelled
ĠNorton
ĠKennedy
ĠOt
ĠHip
Ġchemotherapy
Ġconduct
Ġphotographs
Ġfloating
Ġsin
Å¡
ĠSimilarly
Ġwithdrew
ĠSydney
ĠIan
Ġidentity
ĠKon
Ġcin
Ġscope
Ġtransportation
Ġann
ĠMaria
anc
Ġquestioned
Ġinvestment
fare
Ġ92
ĠLy
Ġhumor
Ġdirecting
Ġsolid
Ġcr
ĠJon
hum
Ġdried
Ġviolent
38
ex
Ġconsiders
ĠDw
Ġblues
Ġreflect
ĠAustria
Ġbanned
ĠGro
ĠFall
Ġvisitors
eline
ĠBoys
nes
ĠGlobe
avian
Ġtemporary
ĠAges
bound
Ġreviewer
Ġrepresenting
ĠStrong
urg
Ġsnow
ĠTodd
Ġfault
ĠGet
ĠWorking
ĠSweet
ĠTelegraph
ĠCarr
Ġworth
ĠHong
Ġthrowing
41
ĠGem
ĠStewart
Ġabroad
uins
Ġrestaurant
pert
Ġsmooth
Ġbeautiful
Ġsequel
³
Ġlink
Ġsuggestion
ĠMaurice
Ġpig
vis
ctor
Ġexact
Ġcertainly
Ġkingdom
Ġsurgery
Ġspeculated
Ġoffers
iph
ĠLibrary
Ġcharged
Ġcoordinated
Ġrum
Ġraise
ĠJones
ĠComedy
ĠPrice
Ġcampus
ĠForces
Ġtries
ĠCont
Ġquit
Ġmagic
ante
ĠRy
ĠGre
ĠPress
Ġensemble
ĠPolice
ĠSimpson
rome
Ġexperts
Ġtrading
á¹
Ġtre
Ġpat
yi
Ġmunicipal
ĠSenators
Ġstatues
can
ĠExpl
Ġacclaimed
ches
Ġboundaries
Å«
ĠConstruction
atra
Ġtreaty
mann
ĠOutside
ĠChristianity
ĠAA
Ġapproaching
ĠBerg
court
Ġteaches
Ġaffairs
fort
Ġaspect
oral
Ġdetected
Ġ317
ĠXIII
Ġpossessed
ĠNash
Ġsponsored
ĠHerm
Ġcool
ĠAway
Ġwings
ĠMorrison
ĠWisconsin
ĠHerald
ester
Ġsaint
inal
Ġcoat
iate
Ġlacking
Ġcousin
ĠFormer
ĠCase
ĠRel
ĠGallery
ved
itated
Ġparticipate
ĠLab
ired
ĠStill
Ġreminiscent
ĠFlow
Ġ1907
01
quet
ĠRut
ĠSer
Ġanimals
Ġhotel
Ġrelegated
ĠMoving
Ġprogressed
Ġalleged
Ġcompromise
ĠCroatia
Ġcolors
Ġshifted
ĠCooper
Ġrig
Ġexpensive
ĠFranklin
ĠAmericans
ĠLuc
Ġjoining
Ã¼
ĠAsh
Ġseize
Ġenclosed
Ġsalt
Ġtim
Ġexpress
Ġbas
ound
aste
Ġbeliefs
Ġeventual
burg
Ġhunting
ĠTreasury
Ġsynthesis
Ġadvancing
Ġduty
Ġtactical
Ġmarking
ĠBasketball
Ġimprovement
Ġdisplayed
enge
Ġalignment
Ġtab
ĠCombat
uv
ores
ulation
Ġ66
Ġstronger
Ġkicked
ĠSusan
ĠStuart
Ġclosure
Ġ220
Ġwartime
Ġgas
ĠCent
Ê
ĠFol
Ġ63
Ġeveryone
55
ruz
Ġcouldn
Ġonline
Ġcommenced
Ġsteps
Ġdelay
Ġfavorable
ammar
Ġ1924
Ġanticipated
hu
Ġdelayed
ĠBrid
ĠEllis
33
break
Ġray
Ġmarks
Ġ260
Ġamounts
61
outs
ĠLouis
Ġbinding
row
Ġfishing
Ġfac
ru
Ġorn
Ġhi
aked
Ġedited
ĠHaw
Ġabilities
ĠBou
Ġrectangular
Ġdemands
ĠTrin
Ġtri
ographic
Ġpublish
Ġ1893
Ġtimber
ĠDomin
Pa
Ġrises
ĠSa
Ġflown
Ġuseful
ĠGothic
amer
Ġperspective
wards
Ġpartner
Ġ84
aten
ĠEs
Ġfamiliar
Ġunclear
Ġdistinct
Ġtelling
ĠMachine
Ġbur
Ġcre
igg
Ġattacking
Ġexchange
Ġperfect
ĠGeorg
Ġstyl
Ġanyone
ĠVillage
rage
ĠUSS
Ġcompetitions
Ġ59
aching
Ġnominations
Ġ1860
Ġproposals
ceptions
Ġsimilarities
erson
Ġwithdrawn
ĠWant
Ġcelebrate
ĠMut
ao
Ġdep
32
Ġchampion
Ġenvironment
Ġpreserved
Ġexception
ĠWars
Ġacceptable
ela
Ġcurved
ĠAlberta
Ġsuperior
ĠDu
Ġlisteners
Ġbirthday
Ġdoctor
Ġphysics
eless
ĠChemical
Ġdanger
ĠShip
Ġtourist
Ġvicinity
ĠCAT
Ġnet
ĠSham
ĠSie
Ġneutral
Ġputting
amps
Ġintroduces
orial
ĠMus
Ġfre
ĠCake
Ch
Ġstrict
Ġelectricity
Ġsubjected
Ġconsultant
ĠAncient
ifle
Ġachieve
Ġtrademark
Ġtribute
Ġcolon
Ġbadly
Ġequipped
ÉĻ
Ġhym
Ġcaps
ĠLead
ĠAdrian
Ġmines
leaf
Ġ1902
oi
olin
aring
Ġaisle
Ġgap
Ġ77
Ġmonitors
Ġreun
ĠGiants
Ġwait
Ġcerem
inz
ĠMys
Ġstood
Ġfavoured
Ġknots
Ġtested
Ġthrow
Ġinf
ĠMand
Ġconsistently
Ġseventeen
Ġgift
ĠTrek
Ġrecruited
ĠJin
ĠCav
ĠDum
Ġattitude
Ġpersisted
Ġpleasure
Ġthinking
Ã¤
Ġcanal
Ġlinear
Ġdisplays
ĠCole
nered
ĠRay
ĠConnie
Ġrestricted
Ġcooperation
Ġdealing
Ġhostile
Ġreliance
ĠMaya
lin
ĠAlfred
HA
Ġlifetime
Ġcomment
ĠShort
Ġsections
Ġjihad
Ġsixty
Ġprofit
Ġcontinuous
hire
Ġoccasion
Ġtalks
Ġlanes
Ġrows
ĠApost
ĠEll
Ġ102
oba
Ġemployment
Ġstudios
Ġsufficiently
Ġsupreme
ĠBet
Ġabandon
ĠMak
tees
ĠCBS
Ġ1891
ĠAber
Ġforests
ĠArabia
illas
Ġworker
ĠKentucky
Ġlesser
cer
obe
Ġfitted
net
Ġseated
26
ĠHolocaust
Ġcounterpart
ĠRandy
ĠNewport
Ġlies
Ġspan
Ġbacked
Ġinspiration
Ġmutual
osh
Ġacc
Ġafterward
Ġcuts
Ġvaried
ĠBirmingham
ĠBeat
mi
Ġgolf
Ġrevenue
terbury
Ġacre
Ġrefer
ĠÂµm
Ġlimitations
Ġ140
Ġcommunication
ĠFre
ĠPatri
ID
ĠAmanda
ĠPierre
non
Ġbills
Ġthriller
Ġafternoon
Ġprovoked
ona
ĠMountains
Ġseats
Ġweight
Ġatmospheric
Ġexperiment
ĠDiane
Ġmissile
Ġflag
Ġliked
ĠFranc
71
Ġbeaten
ĠSilver
Ġemployees
Ġchains
Ġslaves
84
ception
roz
Ġpace
Ġbin
Ġcategory
ĠAgency
Ġpm
Ġlasting
Ġopted
Ġfundamental
ĠShow
zz
ĠAbbey
ska
Ġestate
Ġfocusing
58
Ġdisrupted
Ġhorns
Music
ĠHonor
Ġbright
Ġpaying
Ġdifference
adi
Ġvintage
ĠFoot
Ġrap
Ġpreceding
inct
ĠFischer
ector
fish
Ġclergy
ĠPho
Ġ08
Ġgarden
Ġauthorized
Ġcor
Ġvariant
Ġromance
Ġimpressed
Ġtheatre
Ġcomposer
Ġaccumulated
ko
Ġconst
Ġ121
Ġarose
Ġoffering
iga
ĠApart
itting
Ġhappy
ĠFinally
saw
Ġsharks
Ġrenov
Ġinvestigated
ĠFather
Ġsuccessive
Ġmeters
Ġelite
Ġcircle
Ġfaster
Ġcampaigns
Ġvic
ĠNorwegian
fer
Ġcelebrated
Ġnarrowly
Ġunderstand
str
64
Ġaerial
ĠJr
Ġexp
Ġstores
ĠDog
Ġuniversities
Ġarguments
Ġcarn
ĠCart
bi
Ġtrained
Ġasks
ĠMorgan
Ġprice
Ġdelays
horn
ĠKitty
Ġfalse
imate
34
ĠArkansas
Ġobtain
ĠGlad
Ġpra
ĠDiamond
Ġcount
Ġstopping
otes
Ġallocated
ĠOil
CO
Ġâ
Ġdiffered
ĠMontgomery
ĠJonathan
ĠMLB
ĠImp
Ġmerge
ĠProvince
Ġrebuilding
ĠSenate
ĠAdelaide
ĠNic
ĠMarc
urb
24
Ġdesc
ĠNFL
Ġunnamed
Ġheavier
Ġadvice
Ġexists
acea
uma
46
Ġdistinguished
Ġpersuaded
Ġdifferences
Ġcollections
Ġcivilian
Ġgrow
Ġtaste
Ġrailroad
Ġdeals
ĠEra
ĠCharl
Ġgren
Ġlegitimate
olen
ĠTommy
ums
Ġsaints
ĠHeritage
Ġoccupy
Ġcease
rett
Ġfavour
ĠBeginning
Ġacceptance
Ġcomprised
ĠCatholics
Ġsocieties
ls
Ġrecalls
Ġplayoff
ĠTransportation
ĠUnderground
Ġotherwise
ush
fire
ĠGM
Ġgoods
ĠWarsaw
Ġexhibit
Ġtransition
Ġcontrols
ĠRen
abs
ĠChar
tes
ĠActor
Ġchest
app
Ġdefend
ĠPlant
Ġpp
Ġindependence
Ġ1922
ĠTerrit
okes
Ġrelocated
Ġgains
Ġrepresents
old
Ġviolation
Ġvirtue
ĠGross
music
ĠHave
Ġnick
Ġmis
Ġcomm
ĠPont
Ġlose
Ġlover
Ġfund
Ġdarkness
ĠMos
Lu
ĠXu
Ġsentenced
Ġinformed
Ġcomparison
Ġrenewed
ask
Ġnom
Ġfunctions
Ġ73
Ġfriendly
ely
ĠMo
Ġwitch
Ġcommanders
Ġdoubled
Ġcompete
ĠRalph
Ġreaders
Ġdecisive
ĠControl
ĠWright
ĠBor
Ġ74
Ġmelody
Ġbehavior
apa
ĠHughes
ude
ĠBroadway
araoh
ĠKaiser
ĠBrazil
Ġstructural
Ġannually
Ġrevival
oz
Ġtie
aces
Ġsegments
Ġworn
writers
Ġharbor
Ġemotional
rag
ĠHew
ĠSevent
Ġpreparing
ĠCu
abe
ĠLost
ĠVo
Ġspin
Ġcoll
ych
Ġlocally
ably
ĠDrake
Ġproceeded
ĠCop
uate
Ġtrust
Ġvariation
izards
idd
Ġcrisis
Ġgospel
Ġperformer
imeter
Ġrocks
Ġdeputy
Ġexclusively
Ġspirit
key
face
Ġdefender
Ġsm
Ġexhibited
Ġmarketing
ĠRon
Ġeng
Ġcode
oke
Ġreleasing
ĠIsh
Ġsurrendered
Ġshipments
ĠApp
Ġrounded
uation
Ġcompositions
Ġtransporting
hel
Ġcondemned
ymp
ĠEmm
Ġapparently
orses
Ġangle
here
ĠMason
Ġgraphic
Ġplayoffs
Ġautumn
ician
Ġseam
ime
ught
ĠHospital
Ġreverse
Ġpad
Ġscreened
Ġgar
Ġtemperatures
Ġauthored
irst
ĠEmma
uster
Ġspeakers
opol
atorial
ĠRailway
Ġaccommodate
Ġbo
Ġ112
ucks
Ã¨me
elope
Ġcontext
Ġcoined
Ġ1863
Ġsentiment
ves
tery
Ġhook
ĠPalestinian
Ġdescended
Ġmerchant
rep
Ġmasters
oso
ĠMonica
asts
br
scape
Ġopens
ĠEdge
Ġprotest
Ġadventures
ĠMort
Ġmeasurements
round
pton
Ġsmoke
Ġdiscover
ĠAction
Ġdominant
Ġprices
Ġusers
ĠHad
Ġ1908
Ġexclusive
rig
Ġobject
ĠTy
ĠBrazilian
ĠFIFA
Ġcellular
ĠMas
ĠBaltic
ĠLyn
Ġescaped
ĠComm
ĠStockholm
Ġlimit
Ġcomprehensive
Ġconviction
ĠTucker
Ġdemons
Ġvehicle
Ġextant
NL
Ġridge
Ġavailability
iveness
Ġreveals
ĠLeicester
har
Ġhanded
Ġest
Ġgrown
Ġinstrumentation
umb
ĠCasey
ĠâĢ
rat
ĠSche
Ġshoulder
Ġdawn
ĠBible
Ġfeeding
Ġjustice
ther
ĠHind
Ġculmin
ifying
ĠWalker
Ġ1897
ĠDead
ĠIl
ifications
Ġsketch
Ġvariable
ropolis
Ġaggressive
ĠKate
oma
Ġagrees
Ġpitcher
pic
Ġcrops
Ġspeak
Ġfiled
Ġmarched
ĠVegas
12
Ġconv
Ġjokes
Ġcareers
ote
Ġreb
Ġmountains
ĠWyoming
ĳ
Ġ139
day
ĠBull
Ġintr
Ġdrifting
ĠLiv
ĠJamie
ĠBus
ĠKra
ME
ĠNumbers
Ġrepresentation
Ġonwards
Ġav
bridge
Ġzones
Ġreactions
heads
Ġdeliver
ĠCas
Ġeveryday
eton
Ġjurisdiction
ike
ĠSnow
Ġsigns
ĠSy
ĠMoz
Ġexhibits
Ġpassenger
Ġagriculture
Ġarrives
Ġimprisoned
Ġassess
Ġsailing
ĠReid
Ġprofessors
Ġfortress
vo
Ġboom
Ġalternate
owa
ĠDup
Ġpulp
lew
ĠJoe
ographical
Ġelectron
ĠAndrÃ©
ĠInt
ĠRÃ©
Ġrepublic
Ġ1850
Ġfle
ĠLoc
ĠDeath
oting
Ġcoloured
99
ĠFrancis
odes
Ġconfront
ĠBrussels
ĠLemon
Ġreveal
Ġknows
ĠOak
Ġups
ĠMail
ĠPalmer
ĠShel
ĠGuinea
named
ĠCraig
ĠEuro
ĠNobel
Ġpolicies
Ã©g
Ġassass
hard
Ġphoto
Ġconcentration
ĠOttawa
atti
Ġprojected
ĠCherry
ĠAgreement
Ġstra
Ġvaluable
ĠBelfast
Ġcorps
Ġagency
Ġsalary
Ġmort
Ġx
Ġcoordination
Ġpub
ĠMix
Ġappropriate
Ġlimestone
ĠHutch
Ġpublishers
ĠNat
Ġanthrop
Ġvalley
Ġmuseums
ĠJer
Ġ1882
Ġaggregate
Ġcustomers
otts
ĠDante
ĠAtt
acles
ĠKnights
PS
ĠUpper
Ġdepiction
Ġjun
Ġproportion
Ġtargets
Ġdoors
Ġpal
ĠMarshal
Ġboss
Ġblow
ĠDonald
ĠDavies
uments
Ġconvert
ĠInf
ĠCow
Ġproof
Ġloved
Ġreforms
Ġmysterious
ulates
sub
Ġsteady
Ġhistorically
Ġdebt
Ġrecurring
Ġbiggest
orne
Ġpermitted
Ġflooded
ĠBah
mit
Ġhalted
Ġharass
Ġundertaken
ĠIvan
ĠEventually
ĠSupp
Ġtranslated
Ġcanceled
Ġprot
Ġillegal
Ġeliminate
Ġillness
Ġchicks
pper
ĠLakes
Ġstruggling
Ġgranting
ĠHans
ĠSen
Ġlandmark
Ġsubs
ĠTud
ĠYu
Ġnovels
Ġreferring
ĠConnecticut
85
Ġcosm
Ġunlikely
Ġclosing
ikh
ĠTam
Ġresemble
Ġterrain
Ġbro
13
ĠSax
Ġdangerous
nel
Ġhelicopters
Ġhot
94
Ġdynamic
Ġregistered
Ġec
Ġadopt
Ġregarding
opy
ĠKelley
Ġprint
75
Ġswitch
Ġprovisions
Ġachieving
rain
ĠTruth
Ġprinted
Ġisn
ĠGil
ĠNebraska
aceous
ĠMcG
Ġillustrated
Ġexecution
Ġeasier
Ġeliminated
Ġaccomplished
Ġ196
Ġfaculty
Ġbowl
Ġslender
ĠHugh
ĠLeonard
ĠGut
Ġcreates
ĠSeven
Ġseek
ĠWhit
ĠPerformance
45
Ġlib
Ġimmigration
ĠBren
lic
Ġimpressive
ua
ĠStudies
Ġdocument
Ġlinks
Ġcorrespondence
Ġmoderate
wend
ĠWake
Ġ1912
Ġadvances
Ġenters
Ġtheaters
Ġaveraged
ĠGray
ĠMcK
ĠLiberty
Ġspir
iano
Ġpetition
Ġminority
unt
Ġtissue
Ġfacility
Ġpromotional
oun
Ġadvocated
Ġarriving
olt
sky
allow
ĠPublishing
Ġvertical
Ġdwell
Ġjet
Ġpres
Ġpunishment
Ġapply
ĠDra
Ġenc
Ġpap
Ġdeclaring
standing
ĠBaptist
Ġquest
Ġinaugural
Ġbowling
Ġ1200
Ġimagery
Ġinduction
Ġengineer
Ġlob
Ġexposure
Ġyoungest
Ġexciting
ĠNu
Ġofferings
ĠHunter
27
pos
Ġprotests
lets
ĠScreen
anza
Ġreflects
ergio
ural
angle
Ġer
ĠCass
GB
Ġaging
Ġcomprising
Ġjumping
Ġvast
Ġplate
Ġsq
uda
Ġzomb
ĠComics
iated
Ġspear
Ġcompleting
iber
ĠMarket
rea
ĠJulie
Ġfunctional
Ġinvestigate
Ġpaint
Ġcalendar
ases
ĠFlying
ĠAngel
Ġsurge
Ġdialog
Ġirregular
Ġmetals
Ġexpectations
Ġlacks
Ġgate
verted
asted
rows
Ġbuttons
Ġconfused
Ġmaintaining
ulate
ĠJill
Ġdistricts
Ġadm
keeper
Ġreceives
nis
OS
Ġextraordinary
Ġheading
ĠSubsequently
Ġbiological
rington
ĠDurham
Ġcomplaint
Ġglac
Ġvalues
Ġagencies
oque
ĠFerdinand
Ġordinary
Ġtickets
Ġdeparture
eenth
ĠEye
ears
Ġlistening
Ġcasual
Ġstained
Ġspp
Ġver
Ã³n
Ġ81
Ġbeauty
hurst
ĠGar
Ġapprent
ĠFire
ĠIndustrial
ĠReserve
atur
Ġtrunk
ĠBrook
eh
Ġpure
Ġgra
Ġmultiplayer
ĠProp
Z
Ġpartnership
ĠSport
oration
front
ĠJoint
Ġgarage
Ġgambling
Ġearning
Ġconnect
ĠAp
edge
oes
ĠMetropolitan
Ġdisabled
Ġcosts
ĠLeeds
Ġvoiced
ĠNon
rays
ĠSky
Ġunbe
bers
het
Ġstatue
ĠDance
Ġmental
Ġoptions
Ġfled
Ġaccident
ĠOlympics
ĠJunior
ĠComplete
Ġpresidential
Ã©s
ĠBorough
Ġgraduating
gar
Ġstrategy
Ġorganisations
rell
Ġ99
Ġdetermination
Ġleaked
Ġteenage
Ġextensively
Ġregulation
ĠNL
ĠComputer
Ġunderstood
ĠUtah
Ġcolours
ĠCampaign
Ġsized
Ġhoping
Ġdropping
Ġoperating
Ġpatterns
Ġcake
ĠFurthermore
Ġdissip
Ġoperational
Ġbore
igned
Ġchampionships
Ġseem
ĠKir
ĠProfessor
irc
ĠHug
opes
Ġgathering
Ġconnecting
Ġresolution
Ġtubes
Ġdismiss
Ġpraise
Ġquoted
OM
Ġ78
ule
ĠSeg
Ġrequiring
ĠTong
ĠEvery
ĠSite
Ġclassification
Ġexpert
Ġreversed
Ġsubstitute
ja
Ġrid
Ġlying
Ġannex
Ġsettled
abel
ĠGa
Ġmillions
anch
Ġpeers
Ġassessed
Ġbarrier
Ġministers
Ġhandled
abil
Ġhuge
udes
ÅŁ
Ġproduces
Ġaltered
opened
ĠYugoslav
ĠVarious
Ġinspect
Ġbat
Ġpoets
Ġentirety
Ġperception
Ġlessons
bee
ramer
Ġembodied
Ġincorporates
ĠVert
Ġmining
Ġcomics
Ġcircuit
Ġmovies
boy
Ġlacked
Ġregard
Ġconsoles
Ġsculpt
Ġhosting
ĠBurg
aly
ĠProteins
Ġbre
ĠProgram
so
ĠBaron
Ġcauses
14
ĠBern
Ġhang
hand
Ġmonk
Ġincreases
Ġsport
Ġaren
itic
Ġdread
don
q
Ġmedian
parts
Ġstream
Ġdevoted
Ġtw
ĠCos
Ġmach
icky
Ġprobability
rated
chn
sp
ability
mat
Ġfifty
Ġterminal
ĠAdult
ĠRather
Ġ113
Ġsalv
Ġsometime
Ġcompiled
ĠNi
ĠEst
Ġprovinces
Ġdrug
heries
Ġcolleagues
Ġmemorable
ĠDin
ĠBour
ĠJak
Ġparliament
Ġdemo
Ġimposed
Ġpassages
mic
Ġsoldier
Ġconstruct
Ġencounter
ĠâĢĿ
cu
18
ĠMorris
Ġsympathetic
ĠInv
Ġfortified
ĠCritical
Ġhonest
Ġvital
Ġsyll
Ġmixing
Ġparticipating
gers
Ġrecount
lessness
inge
ĠSpring
ĠManagement
U
des
claim
Ġargument
anto
ĠKatie
Ġcounts
Ġaided
ios
Ġbeings
ĠHaz
ĠFemale
Ġconnection
Ġdozen
idas
Ãº
Ġstaple
ieval
itals
Ġissuing
ĠAdventures
Ġslave
Ġcustody
Ġamphib
Ġnephew
osaur
ĠCommunity
Ġfollowers
Ġpred
Ġprize
ĠKevin
Ġprepare
ĠReagan
Ġanger
Ġdebated
Ġbus
91
Ġton
Ġrumors
¹
Ġcandidates
more
Ġadd
ĠPlaying
Ġtermed
Ġ251
ido
Ġresidues
released
Ġconsist
Ġcommenting
Ã©t
Ġattendance
Ġreflection
Ġmounts
Ġproximity
Ġprime
Ġ<
Ġrendition
Ġmarkers
Ġ199
Ġnations
ĠNewcastle
enn
Ġgrade
Ġobservation
Ġcomprises
Ġdiscussions
Ġvelocity
ĠLane
avia
ĠÃİ
Ġdrafted
stown
ĠDE
Ġpeoples
sin
Ġtorn
Ġnost
Ġwh
Ġvoyage
Ġradius
ounded
ĠBehind
ĠHend
ĠCardinal
ĠLang
Ġpromised
ĠBenedict
Ġlie
ĠGirl
ident
rant
Ġmonitoring
Ġtraveling
ĠBosnia
Ġdocumented
chel
Ġpositioned
Ġmetallic
Ġradial
ĠVel
ĠIslamic
Ġsecuring
ĠGabriel
ĠChristians
Ġprefer
Ġspelling
ardi
ĠForbes
Ġanswer
Ġoperative
Ġinvestigation
Ġretire
Ġguy
Ġwitnessed
ld
ĠHeavy
ĠBoot
Ġdecoration
ograph
Ġ0000
Ġremoval
Ġassociate
Ġstall
Ġsuburb
Ġredd
ned
Ġinvaded
unciation
err
ĠPul
Ġupgraded
Ġwithdraw
Ġbeneath
Ġelaborate
Ġbypass
ĠPeace
facts
ĠJoyce
ĠSta
ĠJud
Ġramp
ĠDoug
Ġnoble
Ġturbines
Ġbronze
imental
Ġtwe
eral
Ġexploitation
Ġruins
zed
Ġreinforced
Ġsleep
Ġmarry
47
ĠBennett
Ġrepaired
ĠContemporary
lor
ĠCuba
hope
Ġmercy
Ġworsh
Ġmas
ĠFore
ancy
ĠRick
Ġchar
thing
Ġconvinced
Ġlandscape
Ġchooses
Ġwashed
Ġrect
Ġseed
ĠWebster
rick
Ġrefuses
Ġsubjects
ilian
anny
Ġsignature
Ġsophisticated
ĠNatural
Ġfragment
ĠDal
atter
Ġdemanded
Ġopenings
ĠGuy
very
Ġreserved
ĠGuang
ĠCur
ĠCentury
ĠAllies
Ġgenerated
ĠDelaware
Ġrecognize
X
ĠVari
ĠPlate
ÃŃn
rov
du
ĠPel
Ġexamined
iet
aÃ±
Ġswallowing
oles
Ġsqu
uits
Ġintelligence
ĠNik
Ġbelts
Ġshirt
Ġsight
Ġarterial
archy
ĠNeo
Ġvalid
Ġzoo
ĠNich
ĠLarge
cock
Ġmood
agara
Ġet
Ġconsiderably
Ġkills
Ġlicence
ĠNottingham
Ġcompetitive
Ġroofs
Ġvisitor
pher
Ġ1876
ologies
Ġassured
ĠCounter
Ġidentification
Ġcelebration
Ġcentres
ĠMetro
ĠAlways
ĠIb
ĠWayne
kinson
Ġspinning
Ġdiplomatic
Ġ1934
ĠLing
Ġrepeated
Ġcenters
ĠHistor
ĠBronze
neath
ometer
Ġadvised
uber
Ġbias
Ġuniverse
ĠPlat
ĠJennifer
09
group
Ġfond
iling
ĠMarcus
ĠMode
ĠForeign
Ġdebris
Ġassists
Ġbapt
Ġwarnings
Ġhalfway
Ġpresents
ient
bag
ĠBlock
Ġid
Ġpanels
Ġcod
zel
ĠSept
Ġunderlying
Ġshoes
25
ĠFinn
Ġweakness
ĥ
ube
imon
Ġvertebra
Ġfinanced
historic
ĠSciences
uring
Ġrhythms
Ġcompeting
Ġexplaining
ĠAside
Ġshortage
print
Ġattending
rical
Ġdiamond
war
28
Ġ180
Ġpseud
Ġreduce
ĠHy
uing
Ġathletes
ĠPoetry
ĠOfficer
Ġconcrete
Ġloaded
eger
ĠBenjamin
Ġdescent
ĠBelle
Ġextends
ixed
ĠRailroad
Ġang
chan
ĠConfederate
Ã¶
Ġedges
ĠNazis
ĠVI
Ġintern
Ġupgrade
Ġclad
ĠJazz
Ġjury
ĠChronicle
Ġcollabor
sted
ĠMean
ements
Ġprotagonist
Ġenduring
Ġorganic
Ġtravelled
uses
vised
WA
anda
ĠSund
Ġfusion
Ġve
Neill
Ġdeposits
Ġentertainment
Ġaside
Ġeldest
Ã¶n
Ġheroes
Ġmigration
ĠHebrew
Ġvenue
ilit
rich
ĠNear
ĠBattery
ĠUpdate
ĠDoc
ĠWy
Ġrejo
Ġpunk
ĠCrystal
Ġsurpass
Ġfile
ashi
ĠMoody
ĠCopenhagen
ĠCanyon
ĠFin
600
Ġinv
Ġease
ĠMu
oper
Ġuns
ĠBan
agonal
Ġlongtime
ocal
ivals
bered
Ġloyalty
Ġawareness
Ġwitness
Ġclearly
ĠTig
Ġpink
omo
Ġremarkable
ĠReich
burn
ells
omb
orts
ĠJump
irds
Ġpian
Ġbreakdown
Ġdensity
ª
Ġfamine
Ġcrust
ĠServices
Ġguilty
Ġliquid
sson
ĠSelect
Ġob
Ġdiscussing
list
Ġdeploy
ĠPolit
mind
Ġacquire
Ġperceived
acht
inated
ĠDiana
Ġchecked
ĠJoan
uck
Ġpunct
rians
Ġbrain
Ġsurvivors
ĠHun
ĠQueens
aver
ĠIceland
nie
rough
Ġrecur
ĠSmall
ĠFletcher
elli
Ġ116
Ġroot
ault
Ġtouchdowns
Ġinterviewed
ĠDefense
Ġcartoon
ĠSpe
gae
ĠLisbon
ĠRugby
ĠOl
Ġsank
Ġdestroying
Ġdual
Ġdancers
ĠGi
ãģ®
Ġdecay
ĠBell
Ġwealth
ĠIdaho
Ġshelter
Ġnaming
aus
Ġreaches
Ġ1925
omics
Ġveteran
Ġrings
Ġbombing
Ġconfusion
teen
Ġhunt
ĠLuke
ĠBobby
Ġaveraging
Ġclusters
ĠTree
ĠCd
venth
ĠConservative
Ġarsenal
ĠDennis
Ġ1899
Ġpredecessor
ĠFood
ĠKyle
Ľ
ury
lander
ĠHunt
Ġimminent
Ġthreatening
Ġproclaimed
Ġdescendants
ĠPac
Ġpush
88
ĠLer
Ġexamining
Ġfru
Ġprovision
aving
ĠJoey
Ġshear
ĠTransport
Ġpull
Ġrugby
Ġticket
ĠAlice
Ġvertically
ĠCornwall
Ġambassador
Ġcomplicated
ĠOrganization
Ġstalk
Ġcourses
gh
Ġgathered
ĠWinter
Ġ83
Ġslaughter
ĠBulgar
ĠCarson
ĠSi
ows
ares
Ġerrors
Ġvote
Ġballs
Ġward
Ġcoalition
ĠGreater
Ġloyal
cribing
attack
Ġpositively
icus
Ġexplosive
Ġcash
owing
Ġretail
ĠThing
Ġsurvivor
Ġbes
Ġriots
osaurs
mary
Ġspoken
Ġgraduated
Ġtheater
Ġarte
Ġidentify
istry
Ġrevived
ĠSK
Ġanalyzed
Ġcompeted
Ġleased
ducer
Ġundertook
Ġenjoyable
anas
uen
lyn
Ġdemanding
hy
Ġknife
ĠArchbishop
Ġcontempor
Ġsharing
Ġmarriages
Ġspotted
ĠHoll
ĠArk
ĠVas
vi
Ġchip
Ġprey
Ġep
ĠDemocratic
ighter
Ġgovernmental
Ġvolunteers
Ġneo
Ġgene
yle
ĠMack
Ã¦
ĠGraves
apped
eri
Ġ1862
Ġgrammar
urban
Ġguitarist
ĠBased
oured
Ġjaw
Ġpocket
ĠNashville
Ġironic
Ġ1885
ĠDubai
Ġrespective
ĠSoul
Ġproceed
Ġinstrument
ĠSolar
Ġdelicate
ĠSex
Ġmilitia
ild
ĠJosh
Ġmoderately
Ġdeployed
Ġmanages
Ġconfisc
Ġlift
ML
Ġdispersed
ĠOffic
oked
Ġmut
Ġcycle
Ġfocuses
ĠLiving
ĠMadrid
Ġelevation
Ġprim
ipp
Ġpersonally
ĠAri
ĠQueensland
Ġarguing
ĠUniversal
Ġaffecting
Ġtunnel
ĠEssex
eters
Ġtenth
inate
ĠBall
Ġunity
Ġurgent
Ġnoise
ĠAdd
ffer
Ġeditions
ĠSri
ĠChamber
Ġscientific
writing
Ġtot
Ġele
Ġperforms
Ġindeed
Ġpicture
Ġdictator
ĠLuis
Ġtying
ried
Ġfreedom
ĠProvidence
Ġspans
ĠAntonio
ĠKurt
uras
Ġmicrol
Ġwilling
oga
Ġoral
Ġsculptures
Ġintact
21
Ġwishes
Ġensured
Ġmainstream
Ġvague
Ġcirculated
Ġnice
ĠBoat
Ġgross
Ġflee
Ġoccurring
Ġexpecting
ending
Ġspecified
ĠNa
ĠSic
ĠUSA
Ġinflicted
uns
Ġnotion
ĠPatterson
cel
Ġcomp
Ġphotograph
ĠStarting
Ġtraditionally
Ġthesis
Ġbars
Ġpalace
Ġchallenges
Ġpursuit
Ġwealthy
Ġrealm
Ġcomponents
ĠRele
ĠLeslie
Ġast
ĠLouisiana
ruff
vet
Ġfinance
ords
Ġunemployment
ĠJu
Ġbells
Ġ1905
ims
ĠDur
Ġchambers
Ġhospitals
Ġgallery
sm
Ġconservative
Ġharm
Ġwished
lik
ĠSm
Ġsteadily
Ġspot
Ġbuff
ĠMember
Ġmist
Ġreplied
ĠHarris
ĠAbr
Ġ164
Ġdiverse
Ġcommitment
ĠKap
Ġchair
BE
CC
Ġev
Ġusual
ĠBrunswick
Ġtranslation
ĠWell
Ġtrips
utt
Ġkilometers
ict
rs
Ġexplorer
ĠChandler
Ġpain
Ġtheatrical
Ġfarmers
deen
ĠAmb
sch
Ġtraditions
Ġhat
ĠSol
Ġbalance
Ġorange
Ġhomosexual
Ġcollective
Ġox
Ġperformers
ĠPlan
Ġgravity
Ġinterpretations
Ġbusinesses
ĠRush
Ġcancer
Ġunf
Ġphotography
Ã¢
roscopic
Ġtrend
resses
ĠAud
amm
ĠJoshua
Ġdetective
Ġdeeper
Ġlighter
Ġenhance
Ġfires
Ġmini
isse
Ġconsidering
Ġtight
Ġ125
ĠChurchill
ĠBrand
Ġprograms
Ġfears
Ġprofessionally
ĠOtt
ĠBrent
Ġregained
Ġdisciples
Ġstaying
ĠEdith
Ġitem
Ġforming
Ġlegend
Ġproductions
uvre
ĠSelf
doms
ĠSierra
orian
Ġmodeled
ĠTechnology
ĠSarah
Ġrelieved
Ġcrosses
Ġpopulated
ĠPenn
ĠBach
Ġdarker
Ġjournalist
unct
icar
ĠBuch
ĠIr
ĠLie
ĠPitt
Ġexperiments
ĠID
Ġcommerce
Ġbull
ĭ
Ġbrutal
Ġstriking
had
Ġbenef
Ġdream
Ġtesting
aan
Ġexplosion
Ġtherm
Ġul
Ġhistorians
ĠRun
ĠWis
ĠCarroll
Ġdisrupt
Ġborough
Ġkne
Ġordering
asons
Ġtrains
Ġuniversal
Ġseas
Ġconcentrations
ĠInformation
elic
83
Ġmilk
Ġsounded
Ġfragments
Ġimprint
Ġlinking
Ġtraces
Ġpleased
Ġsettlements
Ġagree
Ġthread
itter
Ġlogs
Ġovercome
Ġtide
onies
Ġspoke
ĠBeach
Ġ105
Ġflame
Ã¡l
ĠAer
ĠCall
Ġposed
Ġdispatched
ĠAx
Ġtruly
Ġaccompany
Ġsponsorship
Ġassociates
Ġdisguised
Ġ58
Ġscholarly
Ġassert
itsu
Ġconfident
ĠHein
ĠChapter
prising
iac
ĠLowe
itan
ĠOd
Ġgovernors
ĠBright
ĠFitz
Ġinvested
Ġpersons
ĠDigital
acer
Ġmentions
ĠMol
ben
Ġtrivial
Ġmidfield
ĠEat
36
Ġcompensation
ĠJose
Ġhidden
ĠGC
ĠSue
Paul
Ġresident
Ġindustries
Ġimprisonment
ĠPrivate
Ġcivilians
Ġloses
ĠDick
Ġblocks
Ġprefers
Ġintro
Ġdisputed
Ġcabin
Ġutil
Ġcomplaining
Ġinnovative
ĠRud
ĠFace
oors
oned
Ġtemper
asters
Ġca
Ġrelatives
ĠJar
ĠLan
erated
Ġopinions
Ġdegrees
Ġenormous
ĠSyn
ĠNatalie
iously
isle
Ġjealous
Ġcontributions
Ġradical
rown
Ġprote
Ġhay
Ġcards
Ġfairly
ĠRoom
ĠAc
kl
Ġwhatever
gg
ĠNeb
Ġalive
Ġswing
ĠTele
rypt
ĠChel
ĠPortugal
Ġpose
Ġmistake
Ġhighlights
oug
Ġruling
Ġhen
ĠArmed
ĠHungary
ĠChancellor
ĠPot
ĠHamilton
Ġcritically
ĠDenmark
Ġengineered
olic
ĠOhio
ĠTigers
ĠAbu
dez
Ġgrace
ĠAnti
Ġdecide
Ġbelonging
Ġshield
ĠSout
ahu
ĠEng
Ġstatistics
Ġfertil
irical
ĠNCAA
ĠGan
ĠHartford
Ġcompound
Ġadoption
Ġtut
ĠMichel
aches
Ġnecess
Ġwhiskey
Ġrealised
Ġusage
ĠDepression
Ġannoyed
Ġprogression
Ġstump
ĠNice
emb
Ġsav
ĠDry
Ġtroop
Ġclean
ĠLaws
Ġelegans
Ġintimate
ĠReligion
Ġhandic
Ġdominate
Ġingredients
ĠOz
Ġteammate
Ġnut
ĠFourth
Ġ1903
Ġwinners
asy
Ġsuitable
Ġdubious
xd
ĠAmendment
hend
Ġhardly
Ġcrimes
Ġdies
Ġcop
Ġsung
Ġprosecution
Ġfeed
Ġignored
Ġtro
Ġbears
mond
ĠClark
Ġbrutality
Ġ1928
Ġregistry
onna
ĠKerr
ii
Ġniece
Ġwear
ĠGra
¤
ĠWor
Ġpist
Ġkn
Ġchap
ĠLar
Ġallegedly
Ġ1840
ĠPuerto
Ġventure
ĠPowers
Ġsuggestions
Ġinjuries
Ġimplement
Ġfirmly
Ġgall
Ġslowed
Ġharsh
ava
Ġneighbouring
Ġdemonstration
Ġframed
Ġtargeting
ĠWhere
Ġassembly
Ġdismay
ĠPreston
rit
use
Ġwalking
Ġodd
Ġcollapse
laws
Ġomn
Ġuncle
ather
Ġoval
Ġspeaker
ĠSometimes
Ġbonus
Ġallies
Ġresign
ĠAndreas
ĠRichards
Ĭ
Ġbarrel
Ġpotatoes
ĠThings
Ġsulf
oir
Mat
ĠAppeals
Ġvulnerable
ĠWalk
ĠSullivan
ĠPhilippines
Ġcongregation
Ġcrop
Ġadmits
Ġpromise
Ġexceeding
Ġpen
ĠSans
Ġdivorced
most
ĠCave
isons
ĠSymphony
Ġappreciated
ĠLabour
Ġcourage
ĠAf
ĠAlexand
Ġwears
Ġtraits
icated
Ġsilent
ilities
Ġchemistry
ĠLev
Ġstreams
Ġinitiatives
Ġrains
ĠSil
Ġemphasized
iao
Ġmail
quarters
isan
Ġcrest
harm
Ġhometown
UC
Ġprec
amos
Ġham
Ġegg
Ġhearing
Ġlawyers
ĠLet
Ġconcern
Ġtransl
Ġgrades
Ġ01
Ġredesign
ĠJur
Ġdin
Ġeagle
Ġconcentrate
posed
Ġsummarized
Ġquiet
ĠACC
ĠShaw
ĠReturn
Ġremnants
ĠOdys
inger
03
Ġrunners
ĠBL
Ġcrash
Ġimplemented
Ġwish
Ġconsec
go
ĠOrleans
ĠWorks
Ġceased
Ġtrusted
Ġprofound
Ġnationally
Ġexercises
numbered
Ġcivilization
aca
Ġartificial
Ġcomedian
xi
ĠSmart
ĠSaf
Ġdevotion
ĠGang
Ġwrong
Ġcensus
ĠMarine
Ġtart
Ġhandle
jiang
ĠMars
Ġapartments
Ġconceived
Ġbroadly
ĠCotton
ĠRough
Ġdisappeared
Ġtorrent
Ġhence
contin
Ġeverybody
Ġbreeds
alsa
haw
Ġquarters
Ġburden
ĠTrinity
Ġdesperate
ĠTerry
ĠGuatemala
Ġreferenced
Ġtough
ĠHold
ĠSquad
Ġthunder
37
ĠCha
ĠMend
Ġdeadline
Ġ640
alore
Ġthirteen
Ġov
ĠParks
Ġbackwards
Ġunsure
ĠRAF
Ġpromising
Ġrepeatedly
Ġodor
Ġvariations
Ġshattered
Ġdoorway
Ġ1881
Ġrecapt
Ġworkshop
Ġresidence
Ġtertiary
Ġvolley
Ġmash
ridge
Ġthrown
ĠTurn
ĠScholars
ĠDunn
Spot
ĠIsaac
Ġspo
Ġsac
oha
ĠMarie
ĠCant
Ġoverseas
Ġconflicts
Ġnotice
Ġpol
illi
43
ĠMach
arity
outing
eeper
Ġequally
kov
Ġwaves
Ġactively
RS
ingly
Ġinterim
Ġspiders
ĠPres
agen
ĠChick
Ġportable
Ġtube
Ġrelic
ĠWool
65
Ġhailed
Ġseemingly
TC
Ġhelicopter
ĠDiss
arius
Ġtravelling
ĠNewark
Ġchallenging
Ġaverages
Ġsimultaneous
ģ
Ġsweet
ĠTel
Ġportions
Ġconsistent
Ġdefeats
ĠAndrews
Ġprevalent
Ġemploy
ĠCurtis
Ġ275
lette
ĠProte
Ġactivated
93
cor
ĠBooks
ĠMinor
Ġmajors
uding
ĠBureau
arant
Ġcloud
ĠLaboratory
ĠInside
ĠBent
ĠReverend
Ġcatalog
ĠPas
Ġpregnancy
Ġblocking
ĠNelson
ovo
Ġguilt
Ġheroic
ci
ĠAntarctic
played
Ġjealousy
Ġmagical
Äĥ
Ġfres
Ġ134
Ġpremier
Ġborrowed
Ġprinting
95
Ġcomfort
Ġmart
Ġimported
Ġcrystall
Ġinhabited
Ġinfiltr
Ġdemographic
Ġcaret
Ġdemol
Ġsurvival
Ġrefuge
Ġmerely
Ġchain
Ġdrawings
ĠBeth
ighters
Ġattract
ĠBeau
Ġtrail
Ġtreat
Ġcostume
Ġexperimental
Ġappointment
Ġmaps
iment
hua
cribed
ermanent
ij
Ġemb
ĠIntelligence
Ġstere
ald
63
Ġpreservation
Ġsuffer
isto
Ġbarely
Ġcopy
Ġtwins
Ġcostumes
ĠLeg
Ġtrib
Ġ1923
Ġstretch
Ġhelps
ĠArcher
ĠPakistani
Ġparliamentary
ĠAgricultural
ĠLeo
ĠPoll
Ġfunny
elly
feit
ĠRight
ĠGoldberg
Ġslots
Ġembryos
orrow
Ġexamine
wan
Ġdisorder
Ġreducing
Ġagents
ĠOk
pires
ĠAcc
ĵ
Ġalternating
Ġ170
amine
ĠChristine
Ġraids
ĠTwitter
ĠRim
ĠVoice
Ġprobes
abl
Ġcredits
ower
Ġaware
Ġsanct
enic
Ġovernight
DS
ĠUr
Ġcontested
Ġcontribute
Ġoverlooked
ogen
Ġlegislature
pool
Ġaggreg
á¸
Ġbutt
Ġinterviews
Ġlikewise
ĠEm
ican
opa
Ġloud
af
Ġoverlooking
ĠWait
ãĥ«
uta
yards
Ġschedule
ĠDaniels
Ġpacked
Ġimproving
imm
Ġaffair
ĠNote
Ġcheese
ĠSussex
Ġmargins
Ġbacking
ĠColorado
Ġboil
Ġconcluding
¡
Ġintroduce
dy
Ġlatex
idge
Ġapproaches
Ġbuy
ensis
ĠPP
Ġsees
ĠDie
Ġkids
Ġspeaks
lang
ership
Ġspark
Ġscientifically
eled
Ġbelonged
wal
hl
ĠThames
aja
Ġretro
ĠBelieve
Ġdet
Ġbanks
Ġceremonies
Ġ1887
ĠCoron
Ġnarrator
Ġmachinery
Ġgolden
¦
ĠEmp
Ġrom
Ġpledged
emat
Ġtalented
Ġtracked
ĠBarb
Ġthoughts
Ġdecree
owed
Ġhighways
plug
ĠNicholas
ĠHank
ĠWick
Ġfarmer
Ġatop
ĠGreece
Ġslavery
rik
Ġunidentified
Ġstrained
Ġempt
Ġoccupies
ĠFat
ĠNorm
Ġdrinking
Ġqualified
Ġladies
ĠRef
ĠFilms
Ġsect
ictions
SE
Ġdiscovering
ĠIndonesia
Ġdependent
Ġfold
Ġcharging
Ġouts
Ġmessages
Ġinternet
ĠTur
coming
ĠKend
Ġhouseholds
pass
Ġtrucks
ĠAccordingly
R
Ġsoccer
ais
ĠDer
ĠDesign
ishment
idan
Ġprizes
ĠRights
Ġterritorial
ĠSecret
Ġknee
Ġproduct
Ġjobs
Ġdeciding
forth
Ġprotagon
rot
form
adin
ints
Ġserialized
ĠLaura
Ġunusually
ĠHawks
Ġconspir
Ġthereby
Ġaltern
ense
Ġrepeat
ĠDanish
Ġjam
Ġmaternal
ĠHalf
Ġpatrons
backs
Ġrehabilitation
Ġrescued
Ġleather
inguished
Ġlign
ĠYour
Ġparade
VI
Ġsto
ĠBoeing
ĠRap
Ġdeclaration
Ġswallowed
ĠBatt
Ġinterpret
par
Ġnearest
sters
ĠHale
Ġcollectively
Ġregards
Ġ330
Ġmed
Ġsuddenly
ket
Ġalterations
Ġformula
Ġburst
Ġago
Ġpsychological
osphere
Ġfair
Ġimm
Ġacoustic
ape
riv
ips
ase
Ġmagnetic
Ġelevated
odus
ng
Ġpersuade
asha
Ġplausible
ĠTiger
Ġcrab
Ġevac
ĠBuilding
ĠHamburg
unning
ĠCec
ĠSuccess
Ġcanon
args
ĠPur
ĠBj
Ġfounding
Ġexcess
Ġsynonymous
ĠEvil
Ġgrandson
upon
yd
olf
Ġfont
Ġcrow
Ġtoss
Ġfem
Ġcarpet
Ġfavored
Ġjointly
ĠChapman
Ġrenovation
Ġcleaning
ressed
Ġcontinuation
ĠZimm
Ġscout
Ġsurreal
Ġassociations
Ġ138
Ġobserving
Ġpublicly
Ġsexuality
down
ye
Ġancestors
Ġadjoining
Ġplat
ĠCulture
ĠZel
ĠRad
Ġperfectly
ĠRace
uttle
Ġbed
Ġdrugs
Ġlocked
Ġgovernance
Ġconfrontation
Ġexploration
ĠAssistant
ĠManor
Ġfriendship
Ġattain
Ġgraphics
Ġexpect
used
Ġnursery
ĠLevi
ĠStandard
ĠPerry
ĠAugustine
Ġskill
Ġreporting
Ġpassion
ĠRav
Ġprecipitation
Ġlens
Ġdelight
Ġgear
ÏĤ
Ġconversion
ifting
Ġestablishing
Ġbreaks
Ġpenal
Ġobsession
pped
Ġtends
ĠTang
Ġworried
Ġbunk
ĠWorcester
Ġstern
Ġrealise
Ġorganisms
Ġlabor
Ġadministered
ĠHu
ĠPil
Ġinterests
Ġchron
Ġarmour
Ġplates
Ġalbeit
Ġsens
ĠBee
Ġbind
ĠScots
bur
Ġeducated
Ġsurveys
oker
Ġdownward
ĠDig
Ġpainter
Ġblacks
ior
Ġjudicial
Ġmanufactured
ĠNig
ĠChester
Ġdowns
Ġrust
Ġmanufacture
ĠHil
Ġcites
Ġpreparations
ongs
Ġstre
Ġsuspect
Ġretailers
Ġavoided
ĠCore
ĠUsing
ĠEight
Ġconcludes
Ġ1866
ĠXin
ĠBush
Ġenabled
ĠARI
ĠPayne
Ġnamely
Ġdedication
Ġsudden
ĠGeneration
bling
Ġshifting
Ġ350
Ġoutstanding
Ġloading
Ġbounded
Ġkitchen
thi
ital
Ġsuit
ĠRegister
ĠHoliday
ĠCrow
Ġtransmissions
ĠOscar
Ġdonations
ĠRoll
Ġloose
Ġrifles
Ġlasts
ĠBruce
Ġsectors
Ġphases
Ġriders
oul
hest
Ġruin
Ġtroubles
ĠTraining
Ġsed
Ġfantastic
Ġcoun
Ġjewelry
Ġplastic
Ġskeleton
ĠFIT
Ġmortal
je
CM
ĠVul
Ġ1886
Ġtrustees
Ġsacrifice
Ġmidfielder
Ġgen
Ġstrateg
Ġapplications
duced
Ġmaturity
Ġknocked
ĠRobinson
itled
Ġprominently
Ġcakes
Ġboot
Ġtopic
aston
Ġsmell
Ġcrucial
Ġrubber
adows
Ġrecover
Ġwheelchair
Ġlectures
Ġsanctuary
construction
ulf
Ġrelevant
Ġbigger
organ
tering
Ġprompting
ĠOverall
ĠNas
ĠRogers
Ġwidow
ested
Ġvillain
ĠMug
etter
ĠWat
Ġguidelines
ĠHawk
Ġcomplement
17
Ġsituations
ĠParker
Ġcouples
ĠStand
Ġincomplete
Ġschooling
Ġalter
Ġproceeds
Ġexercised
Ġguide
book
Ġsymmetrical
ĠBros
Ġpolar
Ġ450
Ġing
Ġcomparatively
Ġexcluded
Ġ131
ĠAuthority
imeters
Ġtrough
Ġdeclines
Ġpreventing
Ġqual
Ġorphan
Ġpit
Ġ129
ĠPain
Ġerr
Ġurged
ĠNancy
Ġexpand
ĠReviews
Ġconcealed
ĠJess
Ġimper
Ġdetailing
Ġunt
ĠLeone
ĠWol
Ġcriminals
Ġundercover
Ġdeposition
Ġsplitting
ĠDaisy
ĠBert
é
ĠPC
Ġresidual
eles
haven
kind
Ġpercussion
dec
ĠRoc
Ġtextures
Ġseparating
Ġcontingent
ateur
ĠLopez
ĠRub
Ġhon
Ġexplores
ĠOK
Ġanywhere
Ġlineage
Ġbattered
Ġwreck
Ġrav
caster
Ġescorted
mel
Ġsubt
ĠRegardless
ĠCapt
ĠPalin
Ġexploits
ĠHit
ĠSed
ĠHerz
Ġdiv
Ġfal
ĠMain
Ġreportedly
Ġdomain
ĠCy
Ġrevisions
arly
Ġguarantee
Ġ107
Ġdiss
Ġpenetr
HL
ĠAny
ĠChal
Ġcoupled
Ġexplicitly
ĠWard
Ġpredominantly
ĠVermont
Ġherds
ĠPir
quart
Ġcler
po
ario
ĠPhillips
Ġhar
Ġstiff
Ġyield
Ġinformal
ĠBilly
ĠCEO
Ġeditorial
Ġallegiance
Ġexactly
Ġceiling
ĠFinding
Ġnegatively
Ġmaybe
Ġir
Ġhumanitarian
Ġtorture
Ġ820
ĠSee
Ġcle
ĠGrant
ĠYet
Ġcatal
agh
Ġcater
trim
Ġdiver
Ġspl
Ġacquaintance
Ġnobody
Ġtargeted
ĠCanadians
ĠArabs
Ġ203
ĠAbd
uple
ĠStrat
Ġgeography
Ġenhanced
ĠTimothy
Ġdub
29
ĠUm
ĠZero
ĠLower
Ġpermanently
ĠMann
Ġ280
Ġmanuscripts
Ġresponsibilities
Ġdrafts
Ġinvestors
Ġlock
Ġspoiled
ĠFlores
ĠBring
ĠâĢ¦
ĠJackie
Ġfonts
Ġintermediate
fold
Ġprotecting
orms
Ġretain
Ġ152
Ġvicious
05
Ġpiston
Ġsoap
ĠPred
ĠBian
Ġnegotiate
ĠImmediately
Ġrepetitive
Ġbroader
Ġrotation
Ġprocesses
Ġmythology
ĠLiter
Ġpressed
Ġcensorship
Ġforget
Ġadvert
Ġhunter
quire
Ġboots
Ġforwards
Ġconvey
ĠGen
Ġfluid
ange
Ġinhab
Ġmineral
Ġtune
Ġrebuild
Ġpublicity
ĠTax
Ġnickel
ĠNar
Ġattractions
Ġwisdom
Ġcontempl
Ġdoctors
Ġlimbs
Ġswitching
hler
ĠTale
Ġdorm
Ġbou
ĠLloyd
ĠSomething
Ġfarms
Ġelder
kins
Ġseized
ĠWebb
Ġinstruction
Ġexceptional
sis
lio
Ġfreely
ĠAdri
Ġsurprised
ĠExt
oley
Ġrelied
ĠBab
Ġmonitor
Ġcomparing
Ġappealed
ĠCaesar
Ġdemocratic
raz
Ġslight
Ġpurs
ĠFisher
ĠNether
Ġ156
Ġunsuccess
Ġdecorative
bing
Ġbent
Ġregulatory
iger
Ġdisturbed
Ġ172
Ġwitnesses
Ġbackward
Ġengages
Ġafford
bat
Ġnavigation
Ġslam
Ġhonors
Ġantiqu
Ġdonors
ĠKam
ĠStre
ĠPav
ĠTomorrow
Ġnineteen
Ġenforce
ĠTest
won
Ġmil
Ġnecessarily
Ġconverting
Ġmarch
ĠBrooklyn
Ġiconic
Ġinteract
ĠDust
ĠArtists
dong
Ġhyper
ĠSimilar
ĠWit
ĠAustin
ĠWarren
ĠChairman
Ġoccasional
ĠAstr
Ġrevolutionary
Ġbrings
Ġfinancially
ĠMap
ĠDevon
Ġlad
ĠYorkshire
Ġlament
ĠAmy
Ġopp
ĠDow
Ġtick
Ġdisplaying
eded
Ġlighting
Ġtruncated
Ġtit
87
ĠTaking
Ġmarker
Ġvs
Ġretains
Ġunrealistic
ĠWarriors
ĠPle
Ġtravers
Ġscheme
Ġ1400
Ġtipped
Ġdescriptions
ĠEv
68
Ġsick
Ġcombine
ĠFighting
Ġremake
Ġhind
ĠGuard
Ġaddressed
Ġsuppress
ĠTai
rid
Ġoverwhelming
Ġproven
Ġrenowned
Ġ1896
ographically
ĠReading
Ġcalculated
Ġconsequently
urch
Ġenabling
Ġaccompan
Ġniche
Ġ215
Ġsubordinate
Ġdepressed
Ġdialect
ĠPier
Ġobserve
ĠSew
ĠDragon
ĠTir
ĠHost
Ġsim
Ġdisagree
ĠDrum
ĠZe
Ġalteration
Ġinvolve
Ġcontacted
ĠDiff
Ġdiscipline
Ġslipped
Ġloosely
Ġvillagers
Ġbeast
ĠMiy
Ġlik
urn
Ġlab
Ġlegacy
verse
Ġvariants
Ġpartners
isha
Ġcurve
Ġadvent
Ġapplication
Ġamb
Ġspecialized
ulations
Ġmimic
ĠCel
ĠGor
gate
reg
ĠYes
Ġexplored
Ġrelation
ĠSingapore
omination
Ġrails
Ġgloss
Ġsubmerged
ĠConversely
Ġmixes
Ġbreakfast
Ġintegrated
ĠâĻ
Ġforever
Ġperipheral
Ġcontinuously
Ġenlarged
Ġsophomore
Ġretiring
ĠHand
ĠHus
ĠStrange
02
mouth
Ġgaming
Ġreadily
Ġimagination
Ġmargin
liest
Ġgeneal
Ġindie
Ġcheck
Ġtransformed
Ġpredators
Ġnour
Ġlicense
ĠHol
ĠFiction
ĠFranz
Ġpursued
berry
Ġprimitive
Ġstock
Ġrisks
rad
Ġextending
Ġattributes
Ġmodeling
Ġdeleg
Ġenzymes
ĠPlanning
ĠMembers
Ġscandal
Ġgovern
Ġdull
ĠSyl
Ġimmense
ĠElse
ĠPruss
Ġdelivering
Ġguardian
Ġprotective
Ġmal
Ġcomprise
ĠConsequently
Ġpile
Ġclimax
Ġadvocate
Ġlumber
Ġparent
ĠLions
Ġconsistency
Ġproperly
Ġcrushed
Ġconfessed
ĠCroat
Ġorganisation
ĠShin
Ġindigenous
ĠKiss
Ġoath
ĠHayes
oted
ĠEugene
Ġhandling
Ġgenes
ĠRest
Ġeaten
Ġdevice
Ġonward
Ġconfirm
Ġappeals
Ġintellectual
Ġmanuscript
Ġcomplained
Ġmaneuver
Ġfrustration
Ġmentioning
brates
Ġearnest
ĠQing
Ġbankruptcy
Ġcorresponding
Ġnonsense
aught
ĠContin
Ġreplay
Ġenclosure
anged
Ġsimplicity
ĠHastings
Ġtent
Ġornament
Ġbree
lar
ĠChen
Ġadapt
isa
Ġvict
ĠHond
Ġoperator
ĠFriend
Ġevolved
Ġsubstance
Ġkeyboard
ĠRN
Ġcommercials
staff
ĠBernstein
Ġundergoing
Ġgather
Ġpoverty
quin
Ġdetached
ĠFel
Ġincidents
Ġthorough
Ġnav
Ġprevailing
ĠHarvey
Ġcont
ĠEddie
ĠNonetheless
Ġreadings
ĠFernando
ĠGiven
Ġvacation
Ġwhit
Ġdemonstrates
Ġseeks
Ġmanufacturing
ĠDec
Ġfif
ĠColomb
Ġbark
Ġradar
ĠMun
ĠLed
ups
Ġswitched
ĠDillon
ĠEntry
ÃŃa
Ġskills
Ġdug
ega
Ġmorally
acking
Ġstabil
ĠMT
Ġassaults
Ġsummit
aya
ĠFri
ĠFields
ĠOthers
ĠShot
Ġkiller
ared
Ġapp
nen
Ġtops
76
Ġnucleotide
ifies
Ġepit
ĠHear
agne
Ġgait
ĠRiley
ouble
Ġsponsor
Ġtet
ĠAdventure
ĠÃī
Ġtack
ĠChes
Ġtips
leys
fol
gu
walk
Ġclause
Ġarchitects
ature
ĠPrec
umber
Ġneutrinos
Ġknot
ĠSister
Q
ĠInternet
ift
osp
Ġphotos
ĠHills
ophone
Ġlicensed
hal
Ġcuisine
Ġsemic
Ġcham
Ġresc
Ġinvention
Ġexplosions
Ġgig
ĠCecil
idia
ĠGaz
Ġcooking
Ġcres
Ġchef
recip
Ġnineteenth
Ġstealing
Ġdoubles
ĠXI
Ġbelongs
Ġunless
raid
ĠMS
Ġmurdered
nut
Ġz
Ń
Ġconsequences
iful
Ġsink
ait
su
Ġexplanation
ĠDul
Ġgu
Ġdeserted
Ġamazing
structure
All
Ġmelting
Ġcro
Ġthreats
HS
ĠAbove
Ġfo
Ġpayments
Ġpolitician
Ġsinking
ĠESPN
Ġ1884
ĠBolton
iquity
Ġsage
Ġcomplaints
ĠSenator
ĠFound
Ġmention
ĠTennessee
Ġanonymous
erton
Ġshoots
Ġcountryside
herry
Ġtuning
ĠMead
Ġgraves
algia
Ġcustomer
Ġquote
ashed
Ġoxide
urtle
Ġresponses
orders
Ġpremises
Ġcarries
phant
pha
Ġpeer
Ġcosmic
Ġbare
ĠCommon
ĠChest
Ġburning
umn
under
andy
Ġcontr
rites
ni
Ġanchored
ĠNext
Ġfever
anners
uss
Ġfarming
Ġperiodically
Ġorgans
Ġspines
ĠCrist
ĠPrem
ĠWilhelm
zes
Ġestimate
ties
ĠHat
bie
onomy
atively
Ã£
Ġmob
ĠSid
Ġpan
isch
Ġsecular
Ġcurriculum
ady
ĠMang
rina
Ġtram
Ġlease
Ġviolin
hi
ĠMcCarthy
organized
rel
Ġstatements
Ġhalt
©
Ġenjoy
Ġpron
ĠTerror
Ġcis
Ġcoached
Ġtaxi
Ġmeantime
Ġprinciple
Ġ190
Ġemerge
even
oucester
ĠJulius
ĠKer
Ġresearchers
gl
ige
Ġslate
Ġannot
Ġtreasure
ĠMul
Ġmaintenance
Ġmerger
pin
falls
Ġreconciliation
Ġmanual
ĠBaseball
Ġincumbent
Ġanim
Ġrespond
rim
aved
ĠHeat
ĠHealth
Ġmechanism
Ġmaneu
croft
ĠDock
itch
ĠOpera
Ġlakes
Ġdirections
ĠLightning
Ġsupports
Ġforbidden
Ġlisten
ellers
Ġfindings
Ġbasement
Ġtheat
Ġcage
ĠErnst
Ġimpression
Ġear
istical
Ġpest
Ġsubsidies
Ġhomeless
ĠMass
xe
ĠHut
Ġbasal
Ġshoe
ĠNative
ĠHampton
orious
ĠBu
Ġfreed
Ġmathematic
Ġpounds
ĠTac
Ġseparately
Ġrecreational
Ġholes
Ġwarrior
ĠCod
sk
Ġmans
Ġtheft
Ġtents
esc
ĠTestament
Ġrendered
ancing
Ã³w
ĠFund
ĠEnter
Ġfees
Ġquestioning
ĠBrit
ĠExped
iable
ĠAlic
ĠCommissioner
Ã¨s
obia
ĠTraditional
ĠConstantin
ĠCzech
Ġinfl
cat
ĠBritt
Ġrivals
ĠLars
long
ĠMotion
Ġevacuation
Ġleap
bourne
Ġremod
Ġcomponent
ĠKerry
Ġselections
Ġ1906
ĠLot
oro
Ġsword
Ġabsorption
Ġscores
ĠLim
Ġcrowned
PM
ĠBud
ĠScar
aming
Ġharmony
ĠExchange
ĠEliot
Ġspots
tor
Ġwound
nuts
ĠERA
Ġbeams
ĠEnergy
Ġtraced
Ġhampered
garten
ĠLind
ope
Ġprospect
Ġrelations
Ġrhyth
hood
Ġ252
ailing
ĠAcadem
iar
pike
Ġreserves
Ġfrontal
ĠCoul
Ġdealership
igner
Ġdust
Ġdevast
icians
Ġcitation
ountain
ĠArena
Ġsurprising
Ġexamination
ĠCharter
bin
Ġpur
Ġask
ĠPars
ĠIRA
Ġlas
owitz
Ġadvertisement
Ġ87
orns
ĠKan
hift
Ġrespected
ceived
adian
ĠHolland
oxide
92
ĠWarner
ĠJeffrey
Ġlights
Ġmeter
Ġdrummer
Ġdevelopments
ĠFlood
Ġcorporate
Ã«
ĠPatricia
Ġremarks
Ġfis
event
Ġcorners
dan
ĠRI
Ġ1800
82
Ġfeared
orem
ĠWednesday
acon
Ġhonour
ĠYouth
Ġimpro
ĠRan
Ġwardrobe
Ġunpopular
Ġbrilliant
ĠMeh
Ġseasonal
ĠNile
Ġopenly
ĠProv
aic
ĠCombined
anian
Ġflaw
Ġresembles
Ġhist
path
Ġmaintains
Ġmechan
Ġwarfare
ĠCapital
aceae
Ġmud
Ġfastest
itary
Ġencourage
lock
Ġpredecessors
uel
Ġcapped
ths
Ġbounds
vert
reng
Ġheav
Ġmidnight
Ġdisappointment
ĠThomson
Ġadul
etting
Ġencounters
Ġdivers
Ġreturns
BA
itarian
Ġtouching
Ġzombie
Ġharvest
oco
ĠHann
Ġvitro
Ġcement
Ġlabour
Ø±
ĠBU
Ġdeclining
ĠGhost
Ġnewer
umas
iform
ĠCPR
amis
Ġmoisture
Ġlaunches
changes
igs
mounted
Ġspherical
lig
alled
Ġstroke
Ġmould
rod
ĠHotel
Ġmanifestations
rien
Ġspec
ĠTow
stated
pat
rine
Ġspirits
Ġdimensional
Ġobserv
Ġhide
ĠPolitical
Ġsupposedly
Ġtrash
ĠCoy
Ġlearns
hall
Ġentertaining
aines
Ġaxis
Ġdismissal
Ü
Ġnetworks
ĠEnt
Ġcanopy
ĠRid
Ġlos
Ġswimming
Ġ253
put
Ġ1865
ĠFuture
whe
Ġadmired
Ġmanagers
Ġlibraries
Ġmotorcycle
ĠWork
rus
ahn
æĪ
apping
Ġcounterparts
Ġacute
oons
ĠLancaster
ĠUrban
ĠGenesis
Ġspite
ĠVers
Ġinclination
alia
Ġsamples
Ġpaternal
anes
ĠMrs
ĠMayo
light
eson
avel
Sb
Ġcultures
cal
ĠAdvanced
Ġindent
Ġhers
erry
Ġscrutiny
ĠGreens
Ġverses
acters
ĠShore
Ġcomplains
Ġfaction
ĠHum
iple
post
Ġunexpectedly
kin
ĠFut
ologically
ĠHeath
Ġvolcano
Ġpressing
ĠWeber
ucc
Ġabsorbed
NF
mber
mediate
ĠWalking
ĠCompared
Ġsuperhero
sum
inson
Ġrealizes
Ġemotions
Ġerror
arest
Ġreferee
ĠCot
Ġpope
ĠMick
Ġanalyses
Ġefficient
Ġstuff
town
uki
Ġmeteor
ĠDorothy
icon
Ġpuzzles
cell
eps
Ġgenerals
ĠNine
eni
50
boat
Ġrapper
Ġbattlefield
Ġstrain
Ġflawed
Ġunc
ĠMcC
Ġparticles
Ġarticles
liked
Ġthrew
Ġlegislative
Ġlimits
Ġcategories
ĠAgg
ĠPrism
ĠPortland
ĠAndrea
Ġdeprec
unders
ĠMatthews
Ġprincess
mare
Ġinconsistent
Ġprototype
inity
Ġbeds
Ġtactic
Ġsounding
ĠNorthwest
Ġessentially
Ġleuk
Ġpeptide
Ġrejection
hur
Ġdish
uls
Ġpin
olver
ĠCarlos
iors
Ġexport
Ġpartition
Ġoutright
ĠBark
Ġcov
ĠBronx
ĠEdgar
Ġinclusive
Ġglam
Ġpresenting
Ġluck
aded
Ġcoron
ĠQuite
experienced
ĠByron
ĠDy
Ġsurvives
Ġnoticed
Ġstrip
ĠConvention
Ġslip
Ġadequate
ĠCA
Ġmemoir
ĠChase
Ġabundance
ogenesis
aki
Ġdense
ĠWii
ĠBetter
argin
IT
Ġcyt
feld
Ġretaining
Ġcommands
Ġcam
Ġnarr
hem
aur
Ġmammals
Ġastr
orum
anic
andal
Ġmastery
Ġmetric
Ġmatched
Ġkinder
Ġinvestigations
ĠEP
ĠDoctor
Ġstatutory
ĠKor
rap
Ġconventions
ASP
cles
agua
Cd
Ġhal
Ġconveyed
ĠSprings
Ġ151
scribed
aint
ĠBabylon
assic
Ġlucky
Ġclutch
away
Ġsponsors
apan
ĠCut
Ġroster
Ġparach
like
Ġwhites
Ġconcepts
ë
Ġbench
ĠKai
bra
Ġtrapped
Ġstarter
Ġconfidence
ĠReligious
Ġlegally
ismo
acial
Ġcritique
Ġven
Ġmarkets
Ġetc
Ġpreference
Ġprogresses
get
Ġoutlook
Ġbusinessman
world
Ġarray
vision
ĠFleming
Ġspare
ĠManager
Ġcheek
ahan
ĠPicture
ĠBarn
Ġmagnet
Ġprecious
shore
olves
Ġshowcase
ĠSign
ĠAur
Ġrealistic
ĠMake
ĠRaj
Ġundertake
anned
ĠMot
Ġwarrant
Ġstretched
ĠTurkey
ĠAppeal
ĠCamb
Ġfinest
Ġleagues
isting
run
Ġcontaminated
Ġmathematics
ĠPs
xb
ĠLenn
Ġmystery
ution
Ġexpression
Ġkil
Ġwidth
sts
Ġconsciousness
Ġretreated
point
Ġdenomin
Ġjail
Ġpitches
ĠPolicy
va
ĠFoster
Ġthousand
ĠShop
Ġneighboring
Ġdestructive
Ġhole
bes
itude
ettes
otype
Ġque
Ġpromoting
Ġjudged
ĠDisc
ocar
vine
ĠKnow
Ġdemolished
ĠColumn
aging
ĠIndiana
Ġ1894
Ġinst
Ġhatch
Ġcomeback
Ġpriority
ĠCertain
Ã¼r
Ġtrenches
Ã±
Ġrelating
ĠGam
Ġdemonstrate
Ġfeast
ĠAshley
ĠSupreme
Ġcomplexes
ĠTed
Ġlayers
Ġformidable
Ġpurple
Ġabusive
Ġplag
Ġmissionary
Ġwid
ĠInitial
ĠBuck
Ġcustoms
ĠMinutes
etta
Ġcontracted
iscus
Ġassortment
Ġmicroscopy
ĠMonroe
ĠDeputy
ĠCultural
Ġelectrical
Ġencoded
iy
Ġpotato
IE
pered
Ġmating
Ġmature
Ġ133
ĠCrom
Ġremembering
Ġsatisfy
los
Ġpuzzle
ĠKant
atha
Ġunused
Ġmodest
Ġexert
Ġnort
ĠAdministration
Ġproceeding
Ġsumm
atos
Ġdefenses
ĠFish
Ġseventy
itating
Ġenlargement
Ġ750
Ġ247
ued
Ġaccomplish
ĠDiego
MT
geon
bach
Ġq
Ġinvoked
Ġdelegation
ĠManuel
Ġbuilder
Ġendorsed
Ġshadow
Ġmer
ĠVar
iew
ĠAgain
ĠRomans
anon
Ġautobi
Ġinfant
Ġfoundations
Ġoccurrence
ĠRaven
ĠJa
opl
Ġmodes
°
Ġcream
ĠDist
Ġimport
quist
Ġshareholder
Ġamounted
ĠZhang
Ġfatal
ĠLikewise
ĠHab
ĠClement
Mart
Ġincon
Ġinsurance
ĠGospel
ĠBeyond
Ġpriorities
Ġpolitically
ĠUSD
igan
Ġmor
Ġenforcement
Ġexplode
åĳ
WS
Ġpitching
Ġintroducing
Ġtum
Ġintercept
Ġmatching
ever
arma
oubt
Ġregardless
ermost
umble
Ġdefines
Ġhemisphere
ĠTuesday
Ġconsulted
Ġaccurately
Ġtransported
uj
Ġatomic
chen
Ġrunner
Ġcolleg
ented
ĠNPR
Ġelephant
Ġexperimenting
Ġprofess
ulum
Ġfeather
Ġprinters
ĠÂ
Ġlung
Ġtamp
Ġangry
Ġdun
ĠMonster
Ġprohibited
Ġinstances
shi
ĠLtd
ĠJesse
ional
Ġsearched
stab
Ġpayment
Ġprominence
ĠCollaboration
Ġgle
Ġviv
Ġsupplied
Ġprom
Ġblew
acc
Ġuterus
Ġeat
Ġbomber
uther
ĠAssociated
Ġrested
etable
Ġslider
bearing
Ġfirms
Ġobjected
stead
ste
Ġimpacts
uded
Ġpressures
iance
Ġproc
ument
avis
ĠMerc
Ġsuited
Ġbrass
Ġpupil
ĠRot
Ġcollision
lected
aley
Ġinnovations
Ġemig
Ġresolve
init
cript
ĠLuther
Ġomitted
Ġangrily
elles
icted
Ġcommit
Ġsurrounds
Ġpopul
ĠFif
Ġensuring
Ġshelters
Ġmankind
Ġtopp
alf
ĠQue
Ġanal
Ġgym
Ġunexpected
04
Ġrestore
aid
Ġfol
Ġlatest
Ġarrow
Ġorbits
ĠCollins
Ġcel
etic
ÏĦ
Ġjumps
Ġpave
Ġinsulting
ĠPrison
Ġelderly
Ġcameras
Ġhomage
Ġremembered
ĠSecurity
Ġexceed
Ġanalysed
ugs
ista
Ġcamping
ĠBlair
Ġages
Ġtracking
Ġneglected
nesty
Ġeve
Ġsymbolic
Ġassessment
ĠWheel
Ġunlocked
Ġfactor
Ġprospects
test
Ġdevastating
Ġbotan
Ġpigment
Ġlocalities
ĠBarbara
ĠSum
ĠCommerce
Ġglor
06
Ġlibrary
ĠChad
ĠMyers
Ġdramatically
Ġanimation
ĠEinstein
Ġears
Ġarchive
Ġgenerating
idal
Ġsubord
kees
Ġcommanding
ĠByzantine
Ġvalidity
onian
Ġreflecting
cle
uba
Ġexcited
Ġ230
ĠToy
zhou
Ġpredict
inqu
Ġpillars
Ġur
ĠOrt
Ġlogo
ĠCircuit
bels
ĠFourteenth
Ġcontrasts
Ġ650
Ġtensions
Ġdevil
ĠChi
Ġsuspected
vik
Ġshopping
Style
Ġbosses
vy
ĠGerm
Ġlocals
venir
Ġtransmitted
ĠRepresentatives
Ġspeculation
ĠProtein
Ġbranches
Ġsoftware
asmine
endra
Ġsalvage
Ġdyn
Ġkilograms
Ġsupplemented
ĠHour
Ġwheat
Ġrecognizing
ĠHussein
Ġpermit
Ġesp
ĠArmstrong
Ġcommunist
Ġmarble
Ġadvertised
ylvan
Ġepic
FR
Ġshifts
Ġcite
Ġpi
rh
bey
Ġrookie
Ġassisting
ĠOregon
Ġinferior
Ġ97
ĠLegacy
Ġcooler
ĠVII
Ġvow
ĠMP
ĠIM
Ġbush
Ġsupervisor
Ġsticky
Ġmarkings
Ġhumour
Ġhatred
Ġsustain
Ã©m
birth
ĠMuse
creation
Ġembassy
Ġeggs
Ġangles
Ġrecom
Ġattachment
Ġcol
Ġadjusted
urred
Ġconformation
ĠSara
Ġpictures
Ġfut
Ġgrounded
Ġ1830
Ġinfring
Ġpoliticians
anne
Ġhumanity
stop
Ġunprecedented
Ġlayout
ĠÃĸ
ĠFans
Ġspect
ĠJenny
Ġminds
Ġexpanding
ĠCi
ĠRelief
Ġunpredictable
Ġtourism
Ġ109
Ġovert
Ã¡s
ked
Ġdelegates
ĠTemp
Ġ1867
Ġ137
ĠWhereas
Ġadditionally
Ġuniform
ĠDix
Ġrefugees
Ġinteractions
sell
Ġcurtain
building
ĠSS
Ġstaging
Ġcoffee
Ġtens
Ġaltitude
Ġremission
Ġaffect
ipe
ipal
reet
Ġaw
ĠIg
ounding
Ġdishes
Ġblog
Ĵ
Ġvisits
pen
ĠMorning
oriously
ination
Ġpyramid
enium
Ġdepart
ĠRico
ĠPresidential
angs
ãĥĨ
Ġveto
ĠAnnie
oring
Ġrebellion
ĠChuck
Ġsquares
Ġcustomized
II
ĠHassan
ĠAtlas
ĠHitler
Ġcommence
ĠWinston
ĠAaron
Ġgrants
Ġunderwater
Ġaccepts
Ġracism
Ġwelcome
legraph
tr
Ġcom
ĠButter
urnal
encing
Ġkid
Ġhappens
Ġhyp
Ġfails
isted
Ġkeen
cos
Ġ314
mers
Ġcelebrating
Ġmiss
ĠFormation
Ġnickname
ãģĦ
Ġfishes
ĠCarnegie
Ġenlisted
Ġseminal
Ġcomfortable
Ġconsortium
bys
Ġunaware
Ġachievement
Ġapplies
Ġsch
ĠMush
Ġpushes
Ġviolations
Ġairplane
lining
ĠFig
ĠMovie
Ġspeeds
Ġpads
ĠConn
vast
ĠLeaf
ilized
Ġecl
Ġrents
Ġflows
Ġdentist
Ġpint
Ġaux
ency
ĠRepresentative
otten
ĠÎ²
Ġinsert
Ġminimal
Ġencl
Ġ135
Ġlaying
Ġfierce
bb
stars
Ġbehalf
ali
gan
ĠAnnual
Ġarches
Ġharmon
ella
Ġfunction
Ġcodes
ãĤ¤
stage
inner
Ġlateral
pit
ĠVincent
Ġexported
Ġmyel
Ġinnocence
aments
ookie
Ġconfirming
Ġacqu
Ġdisappearance
Ġsomebody
ÙĨ
hot
Ġlandmarks
hab
Ġsett
gle
oven
Ġ1904
Ġcha
Ġracing
ĠKaw
Ġsad
Ġchor
Ġzo
Ġpossibilities
Ġfeat
ĠConcept
cap
arl
Ġexercise
Ġstole
ĠAM
ĠApplic
ails
mon
Ġwarmer
Ġblast
Ġcab
Ġconsumed
onium
Ġmolecules
ulance
Ġexternal
Ġtran
Ġtan
ellow
Ġadvertisements
Ġarche
Ġpatriarch
part
ĠKaz
master
ĠVIII
uds
ĠFrances
Ġregulated
Ġpremature
oom
rium
Ġpreserving
Ġrelate
ĠJews
aman
Ġ145
Ġdecreased
reign
Ġcircular
ĠSources
rolled
Ġembark
Ġrecommendation
Ġcommentators
ãģ°
ension
Ġconstitutional
Ġslope
core
ĠEk
Ġstunning
Ġtransformation
working
Ġcomposers
oused
Ġtears
Ġcatches
Ġvigorous
ĠMethodist
Ġhandheld
Ġinstructions
Ġexplosives
Ġbet
Ġstored
ĠChampions
Ġcir
Ġcure
eta
Ġrely
heres
born
bone
Ġautomatic
amount
SP
Ġdeteriorated
Ġlifestyle
ĠSaid
Ġlifting
Ġswept
lies
Ġacadem
Ġkinds
Ġ173
ĠPriv
Ġobscure
Ġ267
ĠSor
iana
Ġconfined
Ġpri
Ġstriker
ffen
Ġhotels
ĠKid
ĠØŃ
Ġsynthesized
Ģ
Ġtheoretical
Ġhire
opoulos
Ġalert
amin
Ġpatient
Ġstrengthening
sl
Ġdesired
rants
Ġfungi
Ġspecifications
osures
Ġaj
Ġlogical
oney
Ġgraduate
ĠHM
Ġchord
ĠSchmidt
Ġdying
where
Ġcivic
Ġsurname
meal
Ġconsultation
Ġcasting
Ġmelanch
ĠDav
awi
Ġcompanion
Ġbasin
Ġmolecule
pect
Ġuranium
Ġevacuated
Ġsparked
Ġsurrogate
ĠMuhammad
Ġlieutenant
ĠBron
Ġtribal
ĠFellow
headed
Ġstaircase
member
Ġafraid
Ġ1898
Ġfake
icz
ulous
Ġslated
Ġhereditary
Ġnevertheless
RA
Ġdiffers
yne
lessly
actor
Ġfat
ĠJustin
ĠEdmund
ugg
Ġreceiver
cess
Ġdatabase
ĠSalem
ĠRail
tra
Ġpagan
ĠSean
Ġundergone
Ġnotices
Ġgrandparents
Ġreagents
ĠProduction
ĠCastro
Ġdecrease
Ġstrengths
arte
ĠCharleston
ĠLynn
ĠKot
Ġconception
Ġendorsement
ĠAI
Ġthinly
Ġcomparable
ĠAmericas
Ġprofession
Ġmissiles
ĠFashion
ĠFrost
Ġreferendum
anges
bour
Ġthinks
Ġangel
Ġprecise
Ġranged
Ġremark
Ġwaste
ĠDors
Ġdisp
Ġthanks
ivo
ĠDerek
Ġquar
ĠExplorer
ĠFlash
Ġcurrents
Ġfacto
Ġtestimon
Ġwages
Ġencouraging
Ġmethodologies
ĠMing
Ġtrainers
Ġpropose
ĠNeed
adow
Ġdams
Ġintervention
Ġtreats
Ġgirlfriend
Ġprohibition
Ĳ
ĠSaw
Ġinternationally
Ġsugar
Ġunnecessary
ĠMercury
Ġtablets
Ġinsufficient
Ġchol
Ġneighbours
reat
Ġindoor
Ġdubbed
Ġfeud
Ġvalued
Ġmistaken
Ġunde
Ġoppose
ĠWorth
ĠBET
Ġfighters
ĠAbbott
clusive
ĠColonial
ĠIo
Ġnationalist
ĠGlen
elfth
smith
ĠRandolph
ĠSep
Ã¶r
Ġho
reth
Ġposes
Ġdetect
ĠHass
Ġunchanged
ĠRepublican
Ġlev
ĠLucia
ĠRaman
Ġhell
Ġweighing
ĠHiro
Ġbuilders
cted
Ġnoticeable
Ġeminent
Ġsulfur
ĠAqu
Ġwanna
usp
iners
Ġcavalry
Ġsubdiv
Ġclouds
Ġpier
Ġscarce
Ġrepent
Ġcompatible
llo
Ġqualification
Ġcompact
istically
Ġinn
ermann
ĠChang
Ġrests
ĠGian
Ġcoaches
ĠRet
52
Ġmembership
ĠWave
Ġcharitable
Ġabsolute
gered
Ġshall
achus
Ġligand
oko
Ġbiblical
Ġforecast
olved
antry
cats
oli
ĠINS
Ġoxidation
yan
Ġhinder
Ġcohes
Ġdamaging
ĠOrchestra
ĠLanguage
into
andra
ĠIR
ĠBroad
Ġarguably
Ġadds
ĠPant
Ġcarefully
Ġpronounced
Ġelementary
Ġglasses
irth
itudes
mate
ĠGel
Ã¨re
Ġconquered
ĠVancouver
Ġsu
Ġrelates
Ġstrengthen
Ġmarching
ĠGPU
Ġeffectiveness
iper
Ġsoluble
Ġrendering
ĠAthens
Ġlady
Ġenthusiastic
ĠTournament
Ġaliens
Ġ263
Ġfaint
Ġechoed
Ġearthquakes
unted
shine
ĠSebastian
Ġjew
ĠAth
ĠDemocrats
Ġsubtle
Ġmills
anca
Ġtechnically
Ġspectrum
Ġafforded
ĠMiles
ĠSales
iko
Ġglyph
ĠJerry
Ġcombines
Ġruined
cc
etics
wise
Ġindirect
ĠMoreover
ĠSto
Ġtoy
roads
ĠFu
Ġprognosis
Ġstability
ĠMcD
Ġquantity
Ġloving
asis
ĠFinance
ĠBalk
Walk
emaker
ĠLudwig
ifiers
banks
Ġreplacements
--
Ġfestivals
ĠEdition
Ġvot
ĠOccup
Ġowed
Ġpromul
ĠHammond
Ġamended
Ġdistances
ĠBirds
Ġdisturbing
ĠDirect
Ġtopics
ĠCres
ĠVienna
Ġsheet
Ġinevitable
Ġobstacles
Ġfeeds
Ġjumped
ĠNag
Ġarist
ĠEngineering
ĠDor
ĠMÃ©
idy
Ġpret
Ġknit
etr
ĠMoscow
ĠWallace
ĠJama
Ġsalmon
Ġfavourite
Ġflaws
Ġyielded
Ġdetermining
join
Ġenvironments
mu
180
ĠJul
Ġsavage
pg
Ġqualifying
Ġhammer
dition
ĠTask
Ġadopting
Ġrecogn
Ġasc
Ġfabric
ĠNord
riages
Ġstepped
Ġpeaks
ĠObservatory
Ġinflux
Ġps
Ġresur
ĠTro
Af
Ġdimensions
ĠTar
ota
plane
Ġ163
Ġbidding
ĠLodge
Ġsimilarly
Ġtraps
Ġyouthful
Ġcaptures
Ġglobe
ĠEh
Ġ1864
ĠCub
Ġgro
Ġpretty
Ġroutine
AD
ĠSU
Ġcannon
ĠConstitution
Ġexemplified
ĠiTunes
lot
ĠChat
Ġcourtyard
ĠApproximately
ĠSel
Ġfil
Ġoccupying
åł´
eredith
gy
ĠSter
Ġracist
Ġdig
Ġvarying
ĠKill
Ġturmoil
Ġstrive
Ġadaptations
ucky
king
Ġmayor
Ġquantities
ostic
Ġheated
Ġhappening
gated
Ġmus
Ġaccelerate
Ġchim
ĠDoyle
ĠFinnish
Ġrocky
Ġremote
ĠMarina
Ġmyself
ĠRound
Ġembro
kers
Ġoutput
Ġnights
Ġabsent
ĠChampion
ĠHarbor
Ġdeny
Ġaddresses
´
Ġpuck
Ġworkplace
istence
Ġbaff
olson
Ġrestrict
ĠAlien
Ġdefinitive
Ġdecreasing
Ġmemor
enes
Ġmom
Ġbeg
Ġmemories
ogle
Ġcompelled
ĠGods
Ġexile
ĠVolume
rera
Ġargue
Ġvener
Ġpredator
met
ĠSloven
ĠWin
ocratic
Ġsubstances
WC
Ġlifted
Ġfrustrated
ĠArnold
Ġutilized
Ġmigrate
ĠLawson
Ġplatforms
Ġcattle
Ġseriousness
ĠEvidence
ĠLat
ĠMaple
Ġtired
Ġdiscusses
ĠBaldwin
Ġinstantly
ĠTradition
Ġpolypeptide
ĠWords
Ġprogressing
ellation
iscuss
ĠTob
Ġshooter
ĠMeV
ife
itor
Ġrecruiting
Ġsuits
Ġcommun
anting
nik
ander
Ġsurfaces
ĠHet
Ġtendency
Ġrecre
imas
ĠCyn
alking
kt
Ġanybody
Ġsupporter
formed
ĠNetwork
Ġshortened
Ġtalked
ĠVitamin
Ġneeding
ĠWestminster
Ġeating
alo
rying
Ġhom
ĠBaker
Ġsil
Ġpriorit
Ġambitious
Ġsails
Ġshocked
Ġlocate
ãĥ
Ġdissolve
mo
ĠHilton
Ġintentions
ules
ĠIndependence
Ġconscient
Ġexc
Ġcloth
KI
Ġalcohol
Ġcompartments
ĠPriest
Ġtongue
Ġinforms
iere
ĠBenn
Ã£o
Ġpersona
olecules
ĠCirc
Ġfactions
Ġcart
Ġreunion
Ġcooperate
Ġbilled
ĠHi
ĠGardens
Ġshielding
Ġflor
ĠHon
Ġdrills
Ġnarrowed
Ġconsolidation
brush
Ġdiplomat
ĠSeattle
Ġhumidity
Ġimposing
ĠWritten
upp
Ġconducting
Ġdifferentiate
Ġliteral
Ġhierarchical
»
anking
Ġdrivers
Ġallied
Ġentr
ĠGrande
ĠSett
empt
ieux
erate
ulsion
Ġdefine
ĠGaming
Ġordained
Ġmechanic
Ġmere
Ġshy
Ġdepends
ĠEconomy
ĠFriedrich
Ġremedy
Ġliver
Ġaccord
ĠCalgary
inda
Ġvacant
Ġfootballer
Ġesc
lass
Ġprotector
angu
wa
ĠRules
ĠMorton
uy
Ġhopes
ĠSho
ĠLinear
Ġcontracts
ĠCrisis
Ġsynth
ĠKore
ĠWes
ĠRank
ogy
oshi
ĠCommunication
aft
ogue
Ġthr
Ġhurt
dn
Ġtoler
Ġtension
ĠTelescope
Ġspiral
ĠTeen
Ġteammates
Ġjudges
ĠWer
igator
Ġnaturally
atures
Ġpros
ayson
Ġsuicide
Ġwaited
Ġruthless
Ġconf
ĠNaples
ĠColin
Ġstress
ĠAG
ĠPlace
Ġweaker
ĠCameron
creen
Ġexploit
Ġessay
Ġinduct
fest
Ġstorytelling
ĠStefan
asing
ĠName
ĠSpect
Ġplague
Ġ950
Ġ104
ushes
Ġediting
Ġrib
Ġideology
ĠElementary
Ġtribe
SM
ĠGlenn
Ġcalm
Ġpoliceman
Ġcoverage
Ġinspir
Ġacademics
Ġdiving
ĠWoman
ishops
ually
ĠEthiopia
Ġmun
Ġcarbox
uro
Ġtransferring
Ġmandatory
ĠDirectors
Ġassemble
ĠKansas
Ġcustom
Ġblank
asp
ĠArctic
Ġjunction
ĠArizona
Ġfortune
ĠDanny
Ġflanking
addle
Ġcontention
Ġtalking
Ġvolunteer
Ġfantasy
Ġunitary
hn
wyn
Ġcann
izer
ĠGB
ĠDefender
ement
Ġmult
Ġker
Ġrobe
ĠBangkok
Ġflattened
Ġgrave
Ġbloody
ĠSection
Ġmilit
icing
ŀ
Ġproportional
ĠOrgan
Ġcorruption
Ġhastily
Ġexplicit
ĠWarning
ĠGran
abi
ĠMem
ĠMonte
ouses
Ġadministr
mes
ĠSac
aped
Ġ127
ĠSuz
Ġmansion
Ġdresses
Ġconcessions
Ġcommunal
rate
Ġanswered
acements
night
ĠAgriculture
amas
Ġoverly
odic
Ġlabelled
nest
Ġcrowds
Ġpossessing
amped
arrows
Ġconstituted
ĠTit
Ġmyc
ĠPath
Ġempl
Ġcreators
Ġprotested
Ġpreceded
Ġbon
achi
Ġpoetic
Ġfixture
ĠYears
Ġsuperiority
amus
Ġstorms
quest
verte
Ġspawn
Ġdisagreed
urer
ĠVictor
ĠOpp
Ġtotally
Ġresignation
ĠRoth
ĠConcert
Ġdiscontinued
anche
Ġconsolidated
ĠRegarding
ressions
ickers
ĠWa
Ġexpansions
cut
ĠSoutheast
ĠRegional
Ġemphasizes
Ġadministrative
Ġvest
ida
ĠEy
Ġreactors
Ġburnt
Ġenvisioned
ect
orage
aneously
onal
Ġviolet
ĠJerem
Ġfetus
ĠBorg
isk
raction
ĠPor
å¤§
ained
agn
Ġscroll
lim
cing
ĠZen
Ġconsulting
loan
ĠNature
url
ĠMuslims
Ġdiscarded
Ġsa
Ġarrest
Ġregulations
Ġpole
Ġshock
Ġdisappointed
Ġstuck
Ġprose
Ġacknowledged
Ġlaughing
enth
ĠMs
Ġworse
Ġleukemia
mates
Ent
Ġmetropolitan
ermo
Ġrelinqu
Ġblows
Ġmotivated
ĠRainbow
ĠIran
aze
Ġsporadic
Ġ420
Ġinspected
iya
Arthur
Ġlegendary
Ġprogramming
Ġmidst
locks
Ġavoiding
Ġlitter
ĠRout
Ġ1100
Ġma
Ġinning
uish
ĠLess
Ġwhoever
ĠCubs
Ġdome
stock
Ġ^
Ġshirts
iol
Ġtroubled
riving
Ġbursts
Ġparks
Ġcartridge
Ġfidelity
irie
Ġerosion
000
Ġsoci
ĠPine
ounds
Ġpatients
Ġpenetrate
Ġmarrow
rox
ĠDid
ĠDone
ĠGarn
ĠNike
ĠDivine
ĠSlav
inch
Ġram
dict
cha
ĠLogan
Ġanswers
Ġindications
Ġmakers
Ġcomposing
ĠCly
full
ĠQuest
oblasts
Ġdancing
µ
ĠIra
ĠMunich
pa
Ġsunny
Ġbishops
ĠHunting
Ġclade
Ġtutor
ĠWeb
breaker
Øµ
ĠDenis
rei
Ġinstruct
ĠPerson
Ġga
Ġletters
orters
Ġbiting
Ġsettle
Ġdiscretion
astery
Ġlo
Ġ*
Ġbir
lake
Ġharder
ibe
Ġprogenitor
Ġplateau
Ġphylogenetic
Ġgy
Ġstruggles
Ġshowc
Ġcriteria
Ġpractically
ĠAnimal
uted
Ġmah
Ġpurchasing
ĠBP
Ġpossess
Ġenacted
Ġsins
Ġambient
broken
Ġaff
Ġenrolled
Ġtrace
Ġdevote
Ġhybrid
Äį
Ġoddly
Ġaccomplishments
Ġstretching
ĠSocial
ĠPittsburgh
Ġpetroleum
Ġsnake
umi
Ġaccidentally
ĠJorge
win
Ġreliable
Ġobserves
Ġultra
aras
Ġformats
Ġchase
Ġvotes
Ġrecognise
peak
Ġrevolt
Ġpipes
Ġeclipse
track
Ġfused
recht
Ġchast
adors
Ġhighlighting
ĠHalo
ĠKin
ĠPlymouth
ãĤ¢
Ġmyths
ĠEvaluation
100
Ġpointing
ĠRein
Ġsolution
renched
Ġinvolves
ĠComp
ĠManhattan
umbered
Ġphenomena
Ġ126
ulator
Ġcruelty
Ġpossessions
Ġchances
Ġgamma
Ġlining
ĠLis
Ġscratch
±
Ġvegetables
Ġminerals
¿
Ġliterally
ĠKumar
Ġquestionable
Ġextract
Ġvolunteered
ampton
Ġragged
Ġtexture
ĠNos
his
ĠFres
Ġengaging
tec
onde
İ
Ġnavig
ĠLic
ulled
Ġcalories
ĠHorizon
mere
antically
written
inet
Ġcomputers
Ġcommunicate
RE
ĠHash
Ġcalculation
oping
aled
ĠValencia
tracks
Ġcereal
omas
Mill
Ġlayouts
ods
ĠKlein
Ġguess
West
Ã§a
avir
adder
ogl
ĠStage
inees
Ġtow
ĠAssumption
ãĤŃ
ĠLt
ĠStream
acho
ouse
Ġsurfaced
adelphia
Ġbod
anka
ributes
Ġresembling
ãĥ¥
cip
icorn
ĠQuebec
Ġspokesman
sv
fair
appa
Ġprofitable
nick
Ġvisually
Ġattendees
Ġcents
Ġcertification
illary
Ġmerchants
assadors
Ġspell
neb
Ġcouncill
Ġinhabit
Ġbasket
yses
iche
Ġbear
Ġlineup
gian
hton
Ġgay
storm
ogical
ĠGust
bro
Ġoperators
idine
endered
Ġpioneer
ĠÂ§
toc
Ġprovider
ocus
icles
stick
Ġrefugee
ĠYard
Ġvirtues
ĠRobertson
Ġconfluence
Ġneutron
owners
Ġcaud
Ġprognostic
vor
Ġunreliable
Å£
outh
ĠSanders
Ġbuzz
ĠNova
Ġcow
Ġinsist
onset
Ġdeton
aug
inities
top
ocalypse
antic
Ġparted
Ġpresses
ĠSherman
mark
other
Ġrebels
illian
tic
ither
ĠFactory
ĠScientific
ĠTampa
Ġspikes
Ġtier
elt
Ġwhenever
hyth
nc
å
Ġclerk
Ġweeping
ching
Ġdefinite
Ġkilomet
wh
omeric
ĠEug
ague
Connell
ĠMilton
raged
Ġweaken
çİ
ĠOcc
endl
keeping
Ġdiets
inoc
ĠExamples
orth
ĠHood
iam
prepared
ĠTanzania
ĠFem
ortun
Ġunconstitutional
Ã®t
ĠPink
Ġsabot
ĠSaturn
Ġspokesperson
ĠPlans
eting
iffs
Ġempty
ulatory
ĠDynam
Ġendured
Ġcracks
Ġreopen
Ġprow
ĠHyde
esy
division
ĠGeoffrey
Ġbreast
ĠMama
prints
amba
Ġlimb
ĠInsp
Ġlifelong
Ġbetrayed
sek
Ġreduces
uble
hold
Ġsarc
week
Ġtackles
ĠWedding
Ġpul
Ġtumor
Ġicons
ĠEdinburgh
ãĤ¯
Ġmicrophone
Ġbreadth
Ġprogressive
ĠTaiwan
ovi
othe
ippers
ocate
Ġowing
Ġinnov
ãĥķãĤ
osi
ĠICC
ĠWi
Ġepithe
Ġarithmetic
Ġzoom
rospective
rex
ameth
Ġconcur
mac
varn
FTA
Ġ385
ppen
vier
ifice
ĠMik
Ġuncover
Ġcontinent
rice
usions
ppy
ĠStudents
ingo
orted
atro
Ġmamm
Works
Ġundesirable
Ġscrib
ĠYankees
æ
Ġawkward
Ġallegations
Ø§Ø¯
Ġtrauma
bishop
oid
ĠCinema
Ġdiscovers
chart
Ġcollector
pshire
Ġconceded
alties
Ġconsumption
ech
Ġsubsid
Ġsip
Ġdisappear
ĠCool
turn
Ġexploded
Ġrepeal
ĠRu
Ġreadable
ĠGonzalez
asta
ON
Ã¤ll
Ġlat
Ġtimed
à¸¢
ilde
iterate
wo
public
Ġdr
Ġalloys
ĠThunder
Ġdesigning
Ġmu
ĠKenny
ĠCairo
Ġprotr
¨
athy
Ġprolonged
Ġforb
Ġimpending
Ġcreations
ĠPatrol
fal
ĠLem
Ġanalysts
ĠObserver
enton
Ġ402
ĠSet
Ġpostal
Ġassume
Ġhooks
ãĤ
racted
¥
ĠIndustries
ĠPall
Ġmessenger
ollywood
æĹ¥
Ġeconomics
ĠCommunications
kan
ĠRash
ĠFalcon
å®
Ġoceans
Ġelemental
enig
ĠFerguson
ĠOklahoma
ĠBroadcasting
tah
ĠVenezuela
ication
Ġformulated
Ġphot
Ġconsumer
Ġdil
ĠHawaii
ĠKu
ĠAfterwards
Ġconstructing
Ġrepetition
Ġstabilizing
Ġhub
ĠShirley
Ġspanning
Ġsticking
Ġrolled
Ġtownship
Ġinhibiting
Ġgeared
Ġcrystalline
Ġexpenses
Ġdough
ĠWerner
Ġdispar
ĠMcDonald
Ġdynamics
ĠJerome
pro
Ġolive
ĠAugustus
Ġconfess
ĠCareer
Ġboxes
ĠSat
ĠSecondary
ĠNass
Ġpaints
Ġlending
ĠRuby
Ġlod
Ġrushed
Ġpacing
ĠMai
Ġspectacular
Ġoverl
Ġnum
wk
Ġessence
Ġelaborated
Ġinward
ĠClose
ĠPlaces
Ġsting
mina
Ġvastly
Ġmaxim
Ġple
Ġwells
ĠCat
ĠEverything
Ġlen
Ġbrush
ĠGob
Ġanchors
Ġstructured
Ġphysician
Ġgems
Ġpositional
Ġprobable
Ġblind
ĠPlease
atie
Ġpet
Ġdisadvant
Ġamph
Ġadhered
Ġstubborn
Ġflav
Ġlip
Ġbattling
ĠNothing
Ġmot
wi
Ġbitch
Ġannular
Ġmeals
Ġcounting
Ġdrastically
Ġaccounted
Ġobsessed
ĠCalendar
ĠAlmost
itas
Ġrational
ĠCriminal
Ġ508
Ġphilosoph
Ġtackle
Ġconstitute
ĠReaction
Ġconvicted
Ġfragrance
Ġcontinuity
Ġplac
ĠKnown
Ġ119
ĠRag
Ġfreezing
ĠPhys
Ġlag
ĠMemphis
Ġfog
Ġfade
asso
ĠLegislative
ĠSwed
Ġ358
Ġprincipally
Ġhype
Ġstrikes
ĠMoney
Ġdiversion
isi
Ġsum
Ġwre
Ġenforcing
ĠParents
ĠVisual
Ġdefining
ĠAut
Ġrestrained
Ġfarther
Ġretrospective
Ġcrowded
Ġ266
Ġ224
ĠLew
Ġemerges
Ġsob
Ġresting
Ġvolcanic
ĠMond
Ġrein
Ġdro
Ġconversation
Ġheroin
ĠOliver
Ġembarrassed
ĠRep
ĠFlint
Ġteen
Ġannoying
Ġjuxt
Ġwatches
Ġdigging
Ġindependently
Ġsew
Ġprohib
Ġmonitored
ptides
Ġfreight
Ġtransmission
ĠBh
ĠOmaha
Ġlure
Ġmissionaries
ĠCircle
Ġterror
Ġunified
Ġrelaxed
Ġcens
Ġnests
Ġroasted
Ġoft
Ġselective
ĠElements
Ġflexibility
Ġpork
ĠShield
Ġ232
Ġobsolete
ĠPsych
ĠSym
hill
ĠKash
Ġethic
ober
Ġresemblance
Ġ149
ĠNortheast
Ġauthoritative
ĠLomb
ĠMaxim
ĠDevelop
ĠPartners
ĠHundred
Ġnaked
Ġjar
Ġverify
Ġrash
Ġforgive
ĠHig
Ġtended
ĠVision
ĠChan
Ġpumping
Ġpractical
Ġfuneral
ĠCort
ĠBes
Ġbrackets
ĠSounds
Ġdol
Ġinsight
Ġintentionally
Ġphilosophy
Ġfalls
Ġlonely
Ġknock
ĠCiv
Ġchasing
Ġintercepted
Ġimag
Ġinterconnected
Ġhanging
uca
Ġstressed
Ġpleas
Ġmassacre
ĠBrother
Ġhardware
ĠNichols
Ġlegisl
ĠEc
ĠJag
Ġresonance
ĠShawn
ĠAttempt
ĠVince
Ġoptimism
Ġphotometric
ĠNewman
ĠBarnes
ĠFly
MM
ĠABC
Ġintegration
Ġsofter
Ġventured
ĠClayton
Ġprevailed
Ġpropagating
Ġhel
ban
ĠGh
Ġdissolved
ĠFreder
Ġsketches
Ġdeposited
Ġperpet
Ġparticle
Ġfed
Ġlar
ĠDod
Ġdisposition
Ġfacilitated
ĠProgress
Ġnu
ĠTess
Ġeleg
ĠSignificant
Ġprovocative
Ġaforementioned
ĠSavage
Ġcaution
Ġprivilege
Ġhumid
Ġsettling
Ġcorpus
ĠBag
Ġlocalized
Ġ141
Ġorient
Ġactivate
Ġyeast
Ġdepos
Ġdozens
ĠGent
ĠFaith
ĠStock
ĠFruit
Ġaccusations
Ġtaxes
Ġsteward
Ġelectoral
Ġpulling
ĠMalcolm
Ġexamines
Ġdict
Ġtalents
Ġarises
ĠQuick
Ġexperiencing
ĠAcross
Ġregulate
ĠColumb
Ġ323
inine
ĠTiny
Ġheights
ĠGlobal
Ġpending
Ġevaluated
ĠGriffin
uce
ĠApple
Ġstemming
ĠLevy
ĠSty
ĠFew
Ġhorizontal
Ġ174
Ġfurious
ĠAdditional
ĠDed
ĠHD
ĠEpic
ĠHern
ĠNorris
ĠFocus
Ġimpregn
Ġrooted
Ġsep
ĠCasual
Ġeligible
ĠEveryone
Ġevoked
Ġ166
Ġinaccurate
Ġped
ĠAlt
rite
Ġintake
Ġrefined
Ġoutdoors
Ġ366
Ġvacated
Ġ1300
Ġspor
Ġgrav
Ġsap
Ġgoverning
ĠPig
ĠFried
asure
ĠWelch
Ġ153
Ġaiming
Ġbonds
Ġbloss
Ġdistant
Ġclimbing
Ġpot
Ġpurely
Ġhood
ĠKr
she
Ġassoci
Ġconcentrated
Ġlav
Ġsouls
Ġunveiled
Ġlic
Ġimports
Ġrip
Ġsolitary
Ġcate
Ġ272
Ġaut
ĠKi
Ġunfinished
Ġsacr
ĠBard
Ġgeometry
Ġfurthermore
Ġelongated
Ġoffic
ĠFur
ĠJude
ĠFolk
ĠTaj
Ġperimeter
Ġdistinctions
ĠBle
ĠMage
Ġhabit
ĠDemocrat
ĠUh
Ġsmoking
Ġradically
ĠCohen
Ġweigh
Ġdeb
Ġsubstantially
Ġundoubtedly
ĠBody
Ġeas
Ġboards
ĠKl
ĠCarrie
Ġcoherent
ĠTravel
Ġ262
Ġsy
ĠDuncan
ĠSame
Ġancestral
ĠCare
Ġcheer
ĠTina
Ġpip
Ġmonthly
Ġ165
ĠGoing
Ġsubset
Ġhast
Ġcontrary
Ġtear
Ġamyloid
Ġconvergence
Ġantis
ĠClaire
ç©º
Ġtravelers
Ġqui
Ġagreements
Ġevangelical
Ġwelcomed
Ġtriggering
Ġensuing
Ġmir
Ġwaking
Ġcott
ĠTab
Ġpipeline
ĠFixed
ĠWillis
ĠGift
Ġtriang
ipping
ĠRegion
Ġassaulted
Ġmaritime
Ġkicking
ĠLear
Ġpor
Ġprohibit
France
iker
Ġscant
law
summer
Ġdrunken
Ġantit
ccoli
Ġtor
Ġprohibits
Ġassail
BL
Ġprecisely
Ġcob
Ġtariffs
ĠRobin
dom
ĠSerge
ĠJed
Ġreproductive
irs
dam
ĠBuilt
Ġauto
ĠFle
asion
Ġkeeps
Ġ1868
Ġplas
Ġconscious
Ġditch
ĠAbe
Ġfulfill
Ġundergo
Ps
Ġshops
Ġunjust
Ġdistress
Ġparticipation
oming
Ġsilence
Ġtunes
Ġobliter
ĠWide
ctomy
abbath
Ġupgrading
ftime
Ġought
Ġscent
ctions
Ġhates
ĠPS
Ġ290
sea
Ġexcellent
Ġunw
Ġhung
ĠSchools
Ġpractitioners
Ġupt
ĠSher
Ġvolatile
ently
Ġtiny
irected
Ġmerit
Ġrumor
½
PECT
Ġconstrained
Ġrelocation
Ġreact
Ġjungle
Ġlengths
Ġaudi
Ġchoices
ĠPlaza
Ġturnout
ĠHom
onents
Ġmigr
Ġassuming
mia
Ġdecis
Ġdensely
esp
Ġcosmetic
ĠQuarter
ĠGroups
Ġgangs
Ġvisibility
ĠLebanon
zo
ĠBryant
Ġcopper
Ġinsult
Ġminimize
Ġstip
Ġpolype
Ġrobots
emen
Ġ186
ode
aris
Ġbott
Ġsou
Ġholdings
ibal
ĠTheoretical
Ġaltogether
then
transport
Ġtourists
isf
Ġindividually
ĠChu
Ġstripped
Ġsupervised
Ġorb
ĠAnalysis
Ġassembl
ĠHBO
Ġdissected
Ġgluc
Ġintensive
uffs
ĠHusband
ĠFeature
Ġachieves
Ġadministrators
Ġmandated
Ġstick
ĠAuckland
ĠGuest
cery
urrection
Ġearnings
Ġviewer
ĠReform
Ġappropri
Ġlocks
iewicz
uxe
Ġlim
IES
Ġexpressing
Ġliter
market
Ġskeletal
Ġformations
ĠMunicipal
Ġdignity
Ġvigil
Ġcautious
Ġinstructed
Ġemploys
Ġholy
Ġconferred
Ġplagued
ĠUncle
Ġsupplying
Ġdescending
onom
Ġsleeping
ĠPedro
Ġplea
PL
Ġriv
oint
ogg
Ġfailures
Com
Ġhect
Ġ123
ĠSpot
ĠUE
ĠSurvival
ĠJamaica
Ġunlock
ĠKnight
Ġdar
Ġillustration
dr
Ġcontempt
ĠMills
Ġplenty
Ġmolecular
Ġvis
Ġscenario
ĠQuart
ĠCPU
Ġhesit
Ġreduction
Ġstead
dale
iba
emp
ere
Ġbeard
ĠPerhaps
Ġ430
Ġser
ĠMust
Ġskate
Ġaiding
lay
Ġgently
Ġbelong
Ġclever
ĠKem
amon
Ġregister
Ġsuburbs
ĠCraft
Ġjudgment
ĠSpl
Ġhyster
Ġtranqu
olk
iÄĩ
Ġviolated
Ġsubsidiary
ĠBlake
Ġtheolog
ĠOfficial
Ġsterile
Ġalleg
ĠBrom
Ġacknowledge
ĠMil
Ġsubscrib
Ġexposing
Ġcompanions
Ġbef
ĠEff
Ġobligation
Ġfinite
Ġairst
Ġuncovered
Ġparcel
Ġaligned
Ġprincip
enders
ĠTotal
Ġmicro
ĠIraq
Ġbrand
Ġshame
ĠHawaiian
Ġcommitting
ĠWhole
ĠMod
Ġmanage
Ġparam
Ġleaning
Ġtheor
Ġrespects
Ġpinned
Ġanch
ĠMade
ĠYellow
Ġsupplier
ĠEarlier
ĠEmergency
Ġfucking
Ġproud
ĠDetails
Ġboost
ĠDelta
Ġlengthy
Ġcharm
Ġresource
Ġparameters
Ġsymp
ĠRead
Ġ403
ĠCover
Ġupl
ĠWatts
Ġost
ĠUsually
ĠHub
Ġwilderness
Ġideally
ĠTK
Ġrobust
ĠCould
ĠNan
Ġspecially
ilion
Ġhealthy
Ġexited
Ġjustification
ĠGuards
Ġscra
Ġreass
Ġpumps
Ġmanufacturer
ĠPap
Ġcloses
Ġfavorably
ĠPorter
Ġinadequate
ĠCollect
ĠFranco
Ġcruc
ĠSeems
Ġstamped
Ġagreeing
oyal
ĠGard
Ġ157
Ġcirrh
Ġwoods
wall
Ġdecent
ĠAw
Ġcanvas
Ġemergence
earing
Ġpromptly
Ġ618
Ġcontractual
Ġoptional
Ġrewarded
ibly
Ġinspection
Ġweighted
Ġarising
Ġlodged
ĠCrime
icy
Ġpaths
sal
Ġabsolutely
Ġsatisfied
Ġvar
ĠBernie
ĠNavigation
Ġspecializes
ĠWildlife
Ġanimated
ç
ĠParts
Ġadmit
ipt
Ġsheep
Ġally
athe
Ġcharities
Ġelect
ĠCuban
Ġflies
Ġweighs
raph
Ġ486
ĠRespond
Ġministry
ĠEstabl
ĠAch
Ġintending
ĠDawn
entin
Ġmagn
ĠVatican
ondo
Ġstipulated
ĠVir
ĠHands
Ġcoinc
Ġ576
ĠIntern
Ġroy
Ġdynam
ĠLinda
ĠConrad
Ġinitiating
Ġapplaud
Ġrigid
Ġvacancy
ĠEns
Ġsupportive
Ġrevenues
Ġhint
Ġmurderer
Ġdrifted
ĠYam
Ġcontinual
ĠCaroline
ĠInvest
Ġmoist
iele
ervation
Ġell
Ġben
ascade
Ġfortunes
Ġfloated
ration
dered
Ġ210
Ġprecision
Ġbra
ĠStat
ĠIslam
ĠSafety
Ġedible
Ġpav
ĠClaude
Ġprinciples
Ġrejects
upe
Ġoccult
Ġenterprise
Ġdiffer
Ġliquor
UL
Ġincidental
Ġsadness
Ġdeliberate
Ġgrievances
Ġoutlaw
elf
Ġtug
Ġdominance
AB
Ġmarketed
ĠRica
Ġdrilling
ĠIll
boro
edly
ĠOrient
ĠFresh
ĠScotia
Ġelectro
irm
Ġtriumph
Ġstrains
ĠShane
Ġ590
Ġcontrasting
Ġdwarf
Ġignore
Ġoutskirts
ente
ĠEU
Ġsends
ĠCox
thems
Ġri
Ġmanaging
Ġuncertainty
Ġsaving
Ġmembrane
Ġpremium
Ġparamount
Ġpool
Ġweighed
ĠNeal
Ġweekend
andering
Ġlightning
Ġimpacted
Ġconstitution
stand
Ġconspiracy
urd
sing
Ġinhibitors
Ġholidays
Ã¨res
cerning
Ġsampling
gor
ĠShanghai
Ġsecretary
Ġaids
Ġmetabolism
Ġflour
ĠToo
Ġthinner
ĠSudan
Ġfertile
bec
oj
emic
intage
Ã©d
Ġlicensing
using
Ġqualify
Ġinfected
ser
ĸ
Ġ780
ĠHull
osed
ĠRice
Ġcommissions
isms
Ġpounding
kill
Ġsexy
Ġcontributing
Ġinflated
Ġunited
Ġremember
Ġsen
Ġconstraints
ĠNevada
ĠAnimals
ĠEar
Ġknight
tone
Ġcitizen
ania
anner
Ġtrigger
ei
ĠAST
Ġdevised
ĠPetersburg
body
worked
Ġhaul
onymous
unting
ĠMicrosoft
dor
ĠEconomic
oses
Ġauxiliary
ĠPrinceton
Ġescapes
ĠPhysics
chemical
insky
57
Ġincorporate
agles
itively
Il
yla
aney
akin
acing
yman
Ġcook
Bl
Ġstrings
Ġtiming
bol
ĠNewsp
inian
ĠStars
lia
ĠCock
Ġisot
Ġorganism
classified
Ġ182
Ġhospitalized
Ġslot
points
olving
AC
Ġconc
ĠMedical
udad
Ġmetall
Ġsurround
itted
Ġfinanc
rist
orting
Ġmodification
Ġclash
Ġmonster
Ġsax
addy
Ġtelephone
ĠBM
Ġswim
Ġmounting
Ġillustrations
agger
ĠSr
Ġactresses
ĠAlaska
ĠMoor
ĠPale
Ġrobot
Ġphotographed
Ġpenetrating
Ġwarming
Ġmosaic
oin
AN
eler
ĠFR
ĠSteel
ellen
Ġ370
Ġproblematic
dent
Ġ422
Ġgalleries
ĠRenaissance
Ġcrit
ĠJennings
ĠFit
ĠFalls
Ġsmart
notes
ĠThirty
wed
ĠCertificate
ĠGru
ĠDent
ĠDerby
Ġamendment
ĠOrthodox
Ġwheel
Ġmonastery
Ġachievements
ĠAngels
rolling
ĠMental
Ġratio
fts
Ġpresentations
ĠOakland
cra
ached
Ġnarrower
Ġdesktop
ationally
BS
ĠJohann
idium
Ġalike
rates
growth
cav
Ġembracing
Ġcatching
ultan
Ġsettings
adal
ĠSyrian
ĠDoll
ĠJeremy
ĠChanging
Ġidentifies
Ġmarsh
ĠMuk
olar
Ġshit
Ġimplying
æĻ
Ġtakeover
omen
Ġattendant
ĠObserv
ĠYo
Ġinterference
Ġcubic
alry
ĠJudaism
posite
time
Ġsucceeds
Ġpause
content
eding
Ġwield
ĠSession
Ġhollow
inj
Ġ191
ĠIntel
olate
Ġchoosing
Ġaudible
Ġnecessity
Ġgrouped
ĠManila
cluding
Ġties
Ġ169
Ġsimulate
Ġcreatures
ĠNP
Ġweakening
Ġminors
Ġtrails
ĠConne
Ġcoincide
Ġslightest
Ġbackdrop
do
Ġreef
cre
lk
Ġlesbian
Ġmur
Ġmotifs
mir
Ġgut
Ġsupervision
Ġlitre
Ġbeta
ĠCory
opot
Ġweird
inja
ĠViolence
Ġpatent
ĠMell
Ġstrange
ãĥĥ
neh
Ġskies
Ġhiding
edo
Ġ550
cano
ĠCommit
Ġsear
unts
ĠTre
Ġrisen
Ġassignment
fu
Ġintelligent
Ġapartment
£
Ġshootings
green
Ġmeasurement
official
abine
ĠEuropeans
ĠIss
Ġmad
ulus
gem
Ġadvisory
Ġfluorescent
Ġhandful
sta
Ġpapers
ĠPast
Ġinvitation
ĠJohannes
ãĤ¹
Ġstranded
ĠWas
ĠEin
Ġshortages
Ġpour
ĠCelebr
ICE
Ġdemise
ashion
avorite
ĠAra
Ġeager
Ġdisgrace
Brien
Ġdevelops
Ġrankings
Ġbarley
Ġpant
Ġdisasters
Ġpolitic
making
glom
Ġrevenge
ĠBlank
Ġscreening
Ġfounders
Ġpeptides
colors
Ġsucceeding
vez
Ġbeads
ulating
ĠTyp
Ġwherever
Ġdart
olev
BC
Ġposts
Ġts
Ġcancel
120
Ġstout
Ġhonored
Ġredes
ĠÎ±
Ġrouting
zt
Ġsuppression
ĠWik
ĠCitizens
odor
zi
upid
Ġvoices
Ġwit
ighb
iforn
Ġcommentary
Ġmetaphor
Ġtrainer
ĠUpdated
ĠIX
Ġugly
ĠCosta
ĠHugo
Ġdispersal
ĠChambers
ĠFuj
uka
Ġcircles
Ġdonation
Ġemploying
yu
Ġexcluding
ĠMath
ĠSold
Ġfitness
Ġplacement
imo
ĠGonz
estyle
irection
Ġcars
omon
uated
Ġthee
ishes
Ġdrill
Ġmild
Ġrevealing
Ġsolutions
ĠElectric
Ġproductive
Ġconstituency
arine
Ġwillingness
Ġcultivation
right
idelity
ags
ĠFifth
bottom
ĠDong
Ġneighbors
ĠWould
ĠHispanic
Ġperiodic
apes
ogenic
Ġambiguous
Ã¥
mus
Ġrandom
ĠSheriff
Ġblamed
ãĤĬ
Ġhappen
Ġprone
Ġ155
Ġlif
Ġundergraduate
Ġtaxa
Ġdiary
inos
Ġpanor
Ġcatalyst
Ġadvis
Ġmirror
Ġherbs
ĠOrange
Ġanticipation
ded
Ġbracket
Ġsol
Ġblend
ĠFis
Ġresume
chers
Ġanterior
odont
ĠFlowers
ĠHardy
ĠHoldings
ete
atum
Ġpermissible
hers
Ġrulers
rench
98
Ġdreams
vey
uddle
cean
ousal
ãĤ£
Ġsampled
Ġtemplate
arding
Ġhalogen
Ġassemblies
inski
ppers
ĠRabbi
inent
ĠZh
assy
Y
Ġacquisition
Ġfacilitating
ĠCork
Ġpriced
ĠNumber
Ġdefinitions
Ġinstructor
Ġfashionable
agg
Ġreside
Ġgraduation
Ġtissues
Ġ115
Ġresearcher
ĠBulgaria
Ġsucceed
ĠBuffalo
ĠPun
iner
ĠFL
ĠEST
Ġdigitally
ĠRaw
Ġboyfriend
Ġatmosp
ryn
ĠDame
Ġthir
Ġthrows
Ġdim
unks
Ġreconstruct
Ġastronom
Ġadulthood
finals
Ġmonopoly
ĠClassic
Ġprediction
ĠLaunch
oped
Ġorbital
ĠHav
biz
oding
Ġextr
ĠStaff
Ġreasonable
ĠIllustr
days
Ġimpurity
ental
Ġdeceased
illard
erc
isman
Ġjoy
FC
Ġridic
uled
Ġdistinction
Ġdesirable
Ġstationary
Ġprosperity
roph
Ġanimations
ĠDrama
ĠRing
Ġmoss
ĩ
ĠStudy
version
Ġheir
ĠDesert
bian
bn
Add
OP
81
Ġnegotiated
Ġ213
Ġteenager
Ġresp
inter
ĠMillion
Ġpack
iro
Ĺ
Ġgland
ãĥª
Ġ281
Ġirrelevant
pole
Ġsolving
Ġrecipes
urous
Ġtransplantation
car
Ħ
Ġtag
ĠfaÃ§
Ġhorizon
Ġdepartments
Ġheaven
Ġexceptions
Ġgroove
Ġconceal
ĠPublications
bor
izations
smen
ĠTank
umbled
Ġnov
Ġoxygen
PC
beat
Ġundetect
Ġpitchers
ĠTitan
ĠColombia
patrick
ĠDR
ĠSerbia
ĺ
Ġfascinated
Ġfills
ĠCrew
icle
Ġsewage
aupt
Ġaccommod
aping
levard
ĠCompanies
ribution
Ġextinct
SI
Ġupstream
Ġcephal
Ġscared
Ġphysically
uling
Ġterr
enzie
Ġdiscontin
zzle
bu
ĠNak
ffic
Ġaccelerated
yp
aling
Ġsmash
ĠTF
Ġwinding
Ġgrandmother
Ġmum
ĠAlternative
Ġdisputes
Ġthank
LC
Ġtrilogy
ĠNatal
Ġsaved
inery
Ġdeception
lain
Ġportrait
ĠFab
ĠNed
Ġspine
Ġwording
ĠMV
Ġborders
Ġcarrier
igue
Ġsf
Ġbride
Ġconclusions
OG
Ġgaps
Ġcommercially
ĠKok
Ġathletic
Ġobsc
ocket
cephal
ĠAngela
cast
Ġaluminum
rast
Ġportal
athering
86
Ġadmiration
Ġbreath
Ġgenerations
Ġblame
ķ
ainted
Ġflexible
ool
uristic
ĠAhmed
ĠAffairs
Ġ~
acey
ĠMind
Ġ460
communication
ables
Ġflowers
ooting
thouse
Ġtong
Ġfixtures
ĠSalt
ĠKh
Ġterrace
Äģ
Ġblanket
Ġgentleman
Ġaccuse
tain
Ġalerted
Ġbreakthrough
Ġexaggerated
ottenham
CS
isher
ĠBS
Ġcommissioners
iral
izes
Ġprestigious
yles
Ġstatic
ĠResolution
Ġreconstructed
eper
Ġdiagnosed
urel
ĠShah
Ġstranger
few
ologic
ĠShan
Ġdrink
Ġlistened
Ġtransform
ĠRhodes
Ġtriggered
atives
Ġsubstrate
Ġinvas
GT
Ġcultivated
Ġcottage
ĠMatch
Ġlaboratories
Ġgenerous
Ġgrapes
rub
child
Ġmigrants
sworth
Ġbacteria
Ġcruel
ĠAbdul
ĠYouTube
ĠMats
ittings
ĠRoosevelt
Ġscrolling
Ġtriangle
oto
Ġattribute
Ġbricks
Ġwhereabouts
Ġcrazy
ĠBash
Ġrushing
itis
ĠAbdullah
Ġcommem
iae
ennial
unched
ĠMechanical
trained
Ġaims
ensor
Ġspelled
Sports
Äĳ
iller
Ġsubstituted
Ġinclined
Ġcapsules
Ġankle
Ġ108
ele
Ġsevered
Ġcorrection
ĠThursday
Ġidle
Ġfinishes
Ġboarding
ĠYa
Ġdisguise
Ġtestimony
estation
Ġfurniture
Ġlust
Ġminers
Ġclearance
Ġabortion
ĠMarshall
Ġdiagnosis
Ġintegral
ĠElvis
ĠLevel
apid
ĠAfricans
Ġforthcoming
Ġstretches
Ġwhichever
riction
Ġefficiently
Ġmouse
chester
Ġlys
icult
ĠHuss
Ġrelieve
team
Ġenthusi
Ġmakeup
Ġfaults
bil
ĠPract
Ġnumerical
offic
Ġglory
Ġloc
amous
Ġpled
sim
Ġribs
ĠThan
Ġplut
Ġdeclares
Ġevident
inx
Ġgranite
story
ept
Ġfocal
ĠMaine
Ġstew
lights
Ġmate
Ġanchor
Ķ
ĠRange
apo
iques
enger
Ġcommitments
Ġmes
ween
Ã©l
ĠArc
ĠYuan
Ġdot
Ġgarments
Ġinvestigating
Ġasserts
ographers
Ġdecid
ĠCommunist
Ġassignments
Ġcollecting
omin
Ġsensation
ĠRare
Ġshorts
verts
combe
ĠOber
Ġdaylight
dwell
Ġlush
Ġexams
Ġcontrollers
Ġatoms
lett
ĠTheory
ĠLevels
Ġpolys
Ġincurred
ĠEdu
osis
Ġcrashed
ĠBerkeley
Ġaesthetic
angel
inally
Ġdefinitely
ĠReader
ĠYang
Ġinsects
ĠBuild
Ġcommemor
wright
Ġdistract
keepers
Ġcontents
Ġmasculine
ris
olid
ĠKath
Ġreagent
Ã´
ĠDh
ĠColleg
ĠSanta
Ġlined
opp
Ġirony
ĠJudah
Ġqueue
ĠCros
erk
Ġlunar
Ġpredominant
ĠSergeant
oria
hael
ses
ĠWild
Ġsediment
Ġbutter
athan
ĠKel
Ġeighteenth
NW
Ġwake
Ġinterrupted
borg
anded
hash
Ġtrends
Ġvein
enny
Ġmock
Ġthreshold
Ġastronaut
Ġsuperf
ĠTeaching
John
Ġdiscretionary
Ġsandy
lical
ãģ
cs
×Ķ
cz
Ġfitting
Ġhazardous
ĠYorker
Ġlikes
ĠAlliance
ĠEli
fly
'
Ġtile
Ġfacts
Ġanc
ĠPy
Ġinsecurity
Ġdisplacement
Ġstomach
eme
Ġsample
reve
Ġchick
Ġcert
overed
ests
ĠLanka
Ġreward
Ġstimulated
Ġbreach
iary
rail
Ġmound
orm
ĠImportant
BD
Ġproposes
Ġreviewing
Ġwww
ingham
ether
Ġextremes
Ġstature
Ġtelecommunications
Ġinput
ĠBomb
Ġconflicting
Ġaccordingly
ĠFactor
Ġreliability
Ġtoxic
Ġbarrels
ĠChap
Ġbom
Ġbicycle
Ġherb
Ġ483
orgetown
ĠPam
ĠYosh
Ġforth
ĠCru
Ġtherapist
ĠLabor
Far
Ġdivor
Ġrestrictions
enna
ĠConfed
oard
Ġguarded
Ġbeaches
Ġendangered
ĠWW
itzer
ormal
Ġmachines
Ġtoug
iki
lined
Ġstunt
ĠAmbassador
min
ĠLauren
Ġtrim
bit
borne
Ġreluctant
Ġunstable
uto
ignment
ĠMess
Ġvalleys
enance
Ġrepertoire
ĠAlexandria
ĠAmend
ĠSpirit
ouss
Ġprescribe
ĠCincinnati
Ġoz
Ġmess
vent
Ġcommissioner
ĠSpeaking
Ġrealize
Ġrepr
Ġjets
Ġhalls
cht
Ġaxe
Ġsciences
Ġconsumers
Ġleisure
pow
ĠYeah
Ġwelfare
Ġbackgrounds
Ġsubmit
Ġdeveloper
Ġattribut
Ġmeal
Ġkeys
ovich
cycl
Ġalliance
Ġ8000
ĠNY
introdu
Ġvul
Ġuncommon
Ġsmug
Ġsoils
Ġpursuing
Ġcalculations
Ġcared
ĠUniverse
ĠWonder
Ġnewborn
Ġcable
Ġthieves
former
ĠNation
Ġlowered
ĠGovern
ĠRuss
Ġracial
Ġdestiny
vous
inta
Ġstops
ple
lish
Ġgrid
Ġbread
oca
Ġpollution
Ġdisastrous
Ġdebts
Ġsuperv
SC
ĠZone
endant
Ġrecommendations
ĠEthiop
zymes
Ġphys
culation
Ġreadiness
grad
ted
ission
Ġsexually
ĠAccept
ĠShould
rm
Ġextraordinarily
ĠIns
ĠPerl
Ġcoordinator
ledge
Ġdramat
ĠGiant
Ġoptic
Us
Ġcompose
woman
Ġdear
irk
Ġmorale
Bron
ĠVerm
eria
Ġquad
ĠVikings
Ġcontends
near
Ġwildlife
Ġaudio
phone
ĠSteps
Ġsurfing
Ġsut
ĠStore
Ġambulance
hon
ĠSlow
ulture
Ã¤n
ĠExtra
Ġroyalty
ĠMuh
itto
Ġdelaying
ĠVen
orus
Ġ463
ĠReturns
ĠEquipment
ĠTheod
Ġclinics
Ġindirectly
ĠMeta
Ġgrinding
Ġsupern
ullah
ĠVes
Ġrighteous
ĠAmsterdam
ĠZo
Ġhumiliation
Ġsupers
Ġsel
ĠFalk
Ġfool
sten
ĠPanama
Ġstimuli
xton
ĠBras
Ġ382
Ġneedle
Ã¨ne
grounds
ĠMatter
ĠProceedings
umin
Ġtally
pi
armed
Ġinstincts
ĠMultiple
amaz
ĠRunning
Ġattacker
oya
Ġpartnered
ĠAlready
ĠHigher
Ġpools
ĠGay
ĠKnowledge
ĠLindsay
Ġbitter
Ġconspicuous
SO
ĠSuzuki
orthy
Ġshook
Ġplotted
Ġpioneering
Ġ285
Ġinnovation
Ġspells
lein
Ġdesperately
Ġwash
Ġcourtesy
Ġpenalties
Ġcollateral
Ġstorage
Ġrever
houses
Ġzeal
ikov
Ġconfer
Ġfeathers
Ġnull
Ġstal
ĠDru
Ġdisposal
oking
Ġcitizenship
Ġmell
stan
ĠOx
Ġpoles
ringes
dee
Ġunequiv
Ġkit
Ġattitudes
iver
ĠKids
Ġchewing
lav
Ġfolds
Ġultimate
Ġult
Ġblessing
Ġconclude
Ġvoid
Ġclassics
ĠTribune
Ġobey
Ġdiminished
Ġ236
Ġculturally
Ġbedroom
ĠEmmanuel
Ġstric
Ġplaque
Ġcoma
Ġsolic
ĠTypically
avern
Ġkins
urate
quite
Ġ443
Ġ1848
Ġsubdu
ince
oscope
ĠGrove
Ġmisses
Ġprepares
Ġgenius
ĠIslamist
essed
ĠRandom
Ġ364
ĠMillenn
Ġexclusion
Ġphones
emerg
Ġrented
Ġdeserves
Ġbump
Ġblown
Ġflung
union
Ġbatter
Ġtwist
ĠAllan
ĠMH
witz
isty
oct
Ġresisted
wear
ĠThom
Ġelliptical
ĠPie
Ġforehead
ĠRat
case
Ġfork
Ġsuspects
eful
ĠKhal
Ġplated
jective
bital
ĠArms
Ġfortun
Ġfronts
ãģį
ĠLeft
ĠLau
Ġexploited
Ġmacrophages
Ġupdated
ractable
Ġfisher
ĠGlor
ĠSide
Ġbleeding
Ġinterplay
Ġprompt
Ġdistracted
regation
ĠHarper
Ġdoubts
izar
Ð°ÑĤ
ĠConway
Ġ194
ĠDynamic
Ġconven
uming
mb
Ġsums
Ġtrusting
Ĩ
Ġelegant
Ġconsultants
ĠOm
Ġwool
Ġpilgr
Ġrestriction
ĠSup
Ġmisery
aken
Ġbrace
Ġapproving
Ġashes
onucle
chant
Ġnasty
Î½
roe
Ġhydrogen
Ġsli
Ġendorse
Ġaccent
Ġopener
Ġ204
holder
ienen
ĠAlber
Ġgast
Ġsharply
ĠConst
Ġengra
Ġdign
Ġmodelled
ĠFollow
ĠArrow
assembled
atu
Ġredistribution
ila
ĠAtomic
Ġincorporating
Ġreminds
Ġnucle
ĠSalvador
ĠFer
Ġscint
Ġaggress
ĠBB
dess
Ġboarded
ĠCRE
watch
Ġsnakes
Ġemotion
ĠAnthrop
Î¼Î¿
Ġconsolid
Ġclues
Ġlegislators
ordon
Ġintimid
Ġascending
Ġlayered
geons
Ġdesk
ĠGle
oret
ĠPermission
ĠIng
Ġreuse
ĠTechn
Ġaggressively
Ġputative
Ġcorpse
omp
Ġpa
Ġorganizers
reo
Ġbew
enary
Ġsurf
ĠWiley
Ġinstall
ĠPilot
Ġsanctioned
ĠAns
Ġassumption
ĠTag
Ġbooking
Ġgerm
Ġseal
Ġepis
ĠRussians
Ġdissenting
ĠEnvironmental
Ġgratitude
Ġundermine
ĠBeck
position
ortality
gel
ĠSundays
ĠPierce
Ġheels
sc
ĠRenew
Ġlaugh
ionage
ãģĻ
Ġpassport
duct
Ġdeadly
ĠPad
Ġmosque
Ġrecall
Ġscattering
Ġenv
ĠLynch
Ġoffset
Ġferry
olidated
Line
Ġfruitful
ĠCarpenter
Ġlamps
ĠExcept
Ġerroneously
Ġtrout
Ġwrought
ĠCoalition
bank
Ġfamiliarity
Ġslick
Ġmobil
Ġregularity
eras
Ġtechnologies
ĠBin
ĠSG
Ġupward
Ġwards
rier
inth
Ġ415
Ġfran
mania
Ġhed
Ġexecuting
ĠJoel
ĠHos
Ġric
ÏĮ
Ġvac
ĠEvangel
balance
umes
Ġapt
Ġdegradation
olph
ĠDixon
Ġmedicines
Ġimpl
Ġnutrient
Ġprevail
Ġonion
essel
Ġwidening
ĠPlus
Ġ189
Ġmerits
ĠWord
Ġcentralized
Ġlooming
ĠMemory
ocyst
ĠZeit
Ġpuzzled
Ġclassrooms
Ġadvantages
×ĳ
Ġlonging
Ġrats
Ġhostage
Ġcot
Ġdat
ĠCNS
Ġcherry
anine
Ġcollaborators
Ġtrio
onders
tow
Ġrisky
ived
Ġ384
ĠGus
species
Ġmitochondrial
Ġprocession
ilia
ĠWen
bler
aru
ãĥ³
Ġdispos
set
hs
agar
Wolf
Ġhandc
wik
Ġsignaling
Ġsau
ĠFrontier
dog
Ġborrow
Ġseldom
rected
Ġdrought
ĠHenri
Ġcongreg
eland
ĠSurface
ĠExperiment
ĠHed
Ġprovisional
Ġfringe
Ġqualifications
ĠChoice
Ġrubbish
Ġinfancy
Ġheightened
Ġdimin
Ġcasually
terday
Ġprogressively
rils
taire
ĠMit
Ġsocietal
ĠTake
Ġnitrate
idays
ussy
Ġ222
ĠGur
ĠGener
udge
sec
Ġcompelling
Ġpleasant
Ġconcave
Ġoverruled
ĠBella
Ġhugely
Ġcredentials
Ġlone
ĠRevolutionary
ĠBoss
ĠCook
Ġfraction
Ġarchives
Ġpaused
bags
ĠAppro
Ġponder
Ġinducing
Ġloops
Ġguided
Ġ305
Ġexpense
Ġincontin
Ġaltering
yang
ĠNeumann
ĠRevel
Ġleaned
ĠTyson
Ġmuscular
Ġcarbonate
developed
ĠPotter
Ġ261
Ġpuff
Ġanomal
ulo
ĠPolymer
Ġsucc
Ġprofessions
Ġinstallations
stitute
ĠPick
ĠPublishers
Ġcrate
Ġdam
Ġunh
ĠStephens
Ġtimely
Ġrebounds
Ġcriticisms
ĠBeijing
Ġses
ĠCongressman
Ġbenchmarks
Ġpostseason
Ġupstairs
inous
ĠGrad
ortune
apt
Ġhorrible
Ġbizarre
iden
ĠSpy
icular
ĠBerry
ĠBrett
Ġcho
ĠIncreasing
urable
Ġbleed
Ġsafer
Å
ĠInspector
Ġpoisoned
Ġexpended
casters
ĠRosen
Ġpiles
ĠUk
Ġastronomy
tis
zan
attering
aying
Ġreproduction
Ġdistinguishes
Ġdetecting
Ã¸r
ĠOnline
Ġclassroom
Ġrestructuring
aux
SW
rect
Ġtreatments
Ġisolate
Ġ374
kowski
ĠFine
ĠFragment
Ġdecorations
Ġfacult
ĠBars
ĠAngl
Ġprecaution
Ġappealing
Ġnoises
Ġelf
athing
ĠWHO
Ġhid
ĠPeggy
etti
Ġdownstream
Ġpurch
Ġvars
plac
irt
Ġcrude
Ġ549
ĠKub
place
Ġfootnote
ĠMB
Ġthwart
ĠRand
Ġvag
Ġinnocent
Ġcylindrical
ĠKun
ĠMohammed
Ġreceipt
Ġhazard
Ġ922
rae
Ġmoll
andid
Ġchem
Ġconsideration
Ġsusceptible
Ġextraction
boats
Ġinduced
Ġforefront
Ġgenerators
Ġwishing
ramble
Ġdensities
pleted
ENT
Ġadditions
eds
Ġstark
Ġunden
Ġobligations
ĠPosted
ressive
Ġpolishing
umat
ĠActually
urally
Ġbenefited
Ġexposures
Ġuneven
ĠRum
ĠPrim
Ġaggregated
Ġluxury
Ġmourning
original
ĠIsaiah
Ġment
Ġfeminine
ĠScal
alter
ĠSutton
Ġdismant
ĠAssoci
Ġproceedings
ĠGandhi
ĠDet
Ġbags
Ġconcurrently
Ġsleeves
ĠAdvisory
ĠBak
Ġflashes
Ġ207
iti
oughton
ĠBruno
still
Ġspeeches
Ġbarg
esan
Ġeyew
Ġdump
ĠCash
ĠSupporting
Ġetched
Ġfluct
Ġexceeds
Ġlogger
esar
IL
clesiast
Ġbeet
ĠStur
Ġbeloved
Ġposters
ĠLil
Ġstake
Ġdrained
Ġrecited
Ġvibrant
XX
greg
IMO
Ġmerc
Ġantique
ĠCunningham
Ġtracing
Ġvent
ĠCult
Ġdiscount
ĠStri
odi
Ġfi
utton
Ġpaved
Ġchir
ĠNy
ĠPin
Ġâģ
Ġovary
due
Ġbenefits
Ġintriguing
Ãī
Ġmundane
ĠLook
Ġjacket
ĠCurrently
Ġsprite
Ġslice
Ġlept
inic
ouver
ĠIndonesian
Ġattractive
Ġuterine
ĠJacques
ECD
Ġspider
Ġparticulate
Ġchi
anging
Ġcandid
à¸´
Ġseaw
ĠMale
ĠSexual
ĠÐļ
isations
Ġtar
Ġschedules
vester
ainer
ĠFest
ĠJob
Ġmarkedly
ĠSlov
emon
Ġlemon
Ġconvex
Ã¤r
ĠCSS
Ġmutually
ikip
Ġinserting
Ġfinances
150
ello
imming
ĠInstrument
ĠJudy
Ġclustered
Ġprick
ĠSafe
raine
ĠParish
div
ĠKas
Ġballoon
ractions
ĠCert
ĠÎº
Ġmodules
Ġgeographic
Ġshroud
Ġdose
Ġspun
Ġfission
Ġstems
ettings
Ġcages
Ġ368
rip
obal
Ġfamously
Ġsurveillance
Ġreservoirs
Ġannounces
Ġ147
Ġterrorist
Ġmarginal
ĠPCI
ĠEvent
possible
ocl
à¹Ģà¸
ĠWeinstein
ĠEstate
Ġchat
Ġ×
opard
Ġdisadvantage
Ġconnector
OL
Ġtin
Co
Ġsetup
Ġparap
Ġfinger
ĠBradley
Ġvigorously
ĠMilan
Ġsolved
Ġdigit
Ġcategor
icity
shr
Ġhier
ÃŁ
Es
Ġfist
Ġneat
ĠRecent
Ġdeadlines
areness
find
Ġdirt
ĠÃľ
Ġlistings
rout
ĠApplication
Ġblades
history
arate
Ġunanimous
ems
iances
Ġabstract
iani
Ġproves
Ġhab
Ġ177
orno
ĠDil
ĠZur
Ġrobbed
Ġghosts
Ġpoorest
ĠMate
Ġdamages
Ġeccentric
Ġintervening
Ġstrips
inae
ĠMagistrate
pose
Ġclimbed
ilder
obic
Ġstupid
Ġalb
Ġpelvic
Ġscientist
hta
Ġimplied
Ġexempl
ĠTesla
ingu
Ġsupremacy
ĠWesley
Ġpledge
Ġpicking
Ġkidn
icer
Ġsights
Ġantagon
Ġabuse
Ġlamb
Ġpudding
uggling
ographies
aza
olding
Ġavatar
has
Ġfolded
acular
Ġmapping
iday
Ġoutset
hat
Ġlinger
ĠBoh
ĠIndex
62
Ġdermal
Ġabundant
onuclear
ĠRiv
Ġrice
Ġathlete
Ġantagonists
Ġcynical
TZ
ĠEsp
ĠViking
Ġcousins
Ġsuspension
otypical
Ġtimeout
roll
PI
Ġauthorize
ynman
Ġresort
Ġinfection
Ġballistic
ĠContact
ĠOper
ĠTrustees
Ġjustify
inspired
Ġwalks
Ġtiles
Ġscrap
Ġprofoundly
ĠJourney
Ġlapse
Ġabolished
hors
ooth
ĠAgric
Ġolig
ĠIon
Ġsuspicious
Ġinterval
nam
Ġsym
opus
Ġimply
bolt
Ġantenna
Ġseverity
ĠTalk
Ġdraining
Ġraces
Ġbiology
Ġmicrosc
izers
Ġfilter
Ġaccession
ĠAreas
Ġunite
Ġresearched
Ġevenings
yrs
Ġmisuse
accharides
Ġ4000
Ġsuspend
Ġdeclarations
Ġeditors
mn
Ġol
Ġphrases
Ġexistential
Ġworthy
Ġviolate
Ġbony
Ġcircum
ĠMaterial
Ġpackage
Ġnylon
Ġorchestra
hetic
Ġabnormality
Ġpubl
Ġcylinder
oths
rek
orph
itin
onance
frey
Ġhaven
ĠEC
inations
Ġcongestion
Ġdiscern
ĠMedal
gged
apses
ieu
rowing
Ġillegally
ibi
Ġstrand
Ġequip
olute
ĠGarc
lier
Ġbureaucr
pard
Ġcounted
uity
ĠMotors
ĠMae
azar
ĠLip
Ġbonded
Ġestr
armac
rote
ĠSC
orce
Ġsealing
Ġflavor
Ġmuscle
Ġcrystal
eur
estones
Ġhides
bins
amen
ĠIch
Ġmalaria
Ġtoxins
Ġkinase
ĠCS
Ġgenerate
ĠMarion
Ġconvictions
otry
rypted
ĠRaz
Ġ313
Ġforensic
ĠHuang
iries
ĠResort
Ġsailor
Ġcreativity
leman
ĠTheater
yland
Ġdesigners
Ġgranules
Ġblot
heart
Ã¼n
ĠThreat
ĠResistance
obb
Ġdepleted
Ġfrontier
azed
ayed
Ġ219
ĠSpencer
Ġbankrupt
ĠCour
ĠWalton
Ġverge
ici
Ġpil
Ġguild
Ġng
Ġ206
iating
Ġpolished
Ġdestinations
UST
Ġenforced
ī
ĠSachs
Ġdelta
ĠHarvard
Ġaccounting
tee
Ġrecipient
ĠBachelor
Ġveterans
Ġwire
Ġrebel
Ġnonetheless
ĠSchwartz
Ġadvisor
decision
Ġalumni
Ġstreaming
Ġtheoretically
Ġdictated
Ġeff
Ġundertaking
pei
Ġopt
Ġmelt
Ġpercentages
ĠLoss
Ġguys
Ġseparation
ĠSeth
Ġcockpit
Ġtrustworthy
CTS
uli
Ġdilig
orpor
ĠNort
laid
ĠProgramme
Ġnewborns
bel
ĠItal
ctrine
Ġlately
Ġshipped
aro
ynn
ophil
Ġintermedi
Ġswung
esh
emin
Ġdeviations
Ġrotor
ĠBapt
ĠLoop
endi
ĠMarines
Ġlaughs
ĠRou
ention
Ġtiger
cod
ĠfÃ¼r
itus
quer
EMA
Ġdomest
felt
Ġsensitive
Ġdietary
mal
ĠWorkers
aven
enia
bert
Ġconformational
Ġroutines
ieties
Ġcontend
Ġunanimously
ĠBelow
Ġlightly
eca
Ġsenator
idem
Ġbaggage
Ġprocessing
Ġhospitalization
Ġ132
Ġregisters
Ġposture
lon
ĠDuck
Ġloop
Ġ660
Ġknocking
ĠAAA
ĠSites
retched
usted
ĠViv
GS
Ġhilarious
Ġdespair
ĠMurder
rase
ĠEffects
Ġenergetic
actions
abella
Ġneighborhoods
Ġdepict
Ġgraz
Ġfilmmakers
Ġenvelop
ĠCanon
Ġrecurrence
Ġtyrosine
Ġrobbery
Ġassembling
ĠSpringfield
Ġgenerates
omal
ĠBasin
Ġhedge
ĠRivera
Ġabandonment
Ġdan
cret
Ġgru
ĠPiet
onte
ĠCoffee
ĠLaid
Ġvoting
Ġdemocracy
ĠBurton
Ġfoliage
ulk
cient
Ġsolve
ĠLegion
ĠStein
Ġattorney
Ġreligions
CR
Ġupcoming
Ġaccessories
Ġshred
Ġshout
Ġelevator
Ġsubdivision
friends
Ġefficiency
Ġlimitation
Ġbout
Ġcongress
Ġprovoke
Ġdisappears
Ġfunctioning
ivated
ĠSears
Ġjustified
Ġpride
Ġmod
ĠArg
entieth
Ġcompromised
inned
ople
Ġglob
Ġoverthrow
Ġemphasize
base
Ġaven
ĠCNN
Ġsuitably
Pro
Ġorth
ĠSob
ĠBog
ylum
Ġcatalytic
Ġshores
Ġatroc
umu
Ġremnant
Ġchaos
Ġshorten
Ġirre
Ġstays
awning
inder
orean
Ġkidnapped
ustr
orate
ĠAid
ĠOrd
Ġrespectful
sev
ĠTrain
ĠBrandon
ĠClaus
pering
Ġ198
station
Ġfreshman
Ġquo
ĠCompan
Ġerg
ĠMur
cept
osidase
ĠEleanor
last
atz
bird
sf
Î´
ĠBoulevard
uffle
Ġoutfit
Ġsuperficial
Ġnucleic
Ġrides
Ġdecreases
Ġdonate
Ç
Ġderivative
Ġstrategies
Ġfavoring
Ġmont
Ġbanana
ĠSant
Ġparticipants
iences
ĠÅŁi
ipl
runner
Ġsacrifices
Ġsync
Ġgravel
ogs
Ġtranslates
Ġloot
Ġhunger
nz
Ġlarvae
ilee
Ġskirts
Ġgesture
LA
Ġsits
fin
mount
ioned
Ġrupture
ħ
Ġcoatings
ĠProtection
Ġliner
Ġexponent
anted
rew
Ġtestament
ĠDecl
ĠMercedes
ĠPrep
ĠNMR
Ġlupus
Ġalarmed
Ġapplicant
Ġsphere
Ġ630
Ġbubble
opal
ĠAbrams
anked
Ã¯
ijan
plement
inates
Ġoffenders
Ġmotives
ensible
ithe
oder
Ġservants
mem
ĠManufacturing
Ġdictators
Ġelectroly
Ġjug
Ł
ĠStalin
erta
ĠCe
seen
ĠRanger
Ġfamed
lez
Ġluc
Ġaccusing
astically
Ġminded
Ġnominal
ĠCabinet
Ġexpands
ĠPrimary
Ġwrest
ĠPrint
Ġfriction
Ġimagin
known
130
Ġail
inted
ĠRoot
Ġmand
Ġswinging
ĠDress
ĠCustoms
Ġlingu
Ġoss
urface
ensions
Ġarrows
ĠTransit
apat
Ġmagnitude
istas
shock
ittle
agher
ĠVamp
Ġimmigrants
Ġintricate
UD
wind
fulness
Ġdifferentiation
oqu
Ġyarn
ĠKnox
arers
Ġbru
Ġexerted
ĠRol
Ġpits
ĠAPC
urbed
ĠChand
ĠConnor
ĠEducational
Ġnaive
heed
Ġarth
Ġbeautifully
Ġfights
ĠCommun
natural
ĠBO
Ġaugment
Ġauction
ĠAzerba
Ġunle
Ġsuggestive
Ġunpublished
mos
Ġbillionaire
ĠCarm
Ġsurgeon
Ġitiner
Ġes
ocom
ĠAdvance
ĠLiber
ãĤĤ
reason
abeth
Ġrevelation
ĠFlorence
Ġwonderful
Ġbundle
ocaust
Ġcapit
ĠSword
ĠSynd
ĠFunding
Ġamp
Ġvacuum
giene
Ġdiscourage
ĠVlad
Ġrevis
formation
ĠKepler
Ġattracting
Ġprisoner
Ġspraw
ĠLegislature
Ġbred
Ġtort
Ġbuyer
Ġdich
icking
rived
Ġartistic
imes
Ġgenerosity
Ġincredibly
Ġtechnological
Ġcrick
ĠScout
Ġretard
Ġdeceit
ĠRus
Ġpiercing
Ġpostponed
fet
º
Ġradios
ĠLif
vere
Ġrecruitment
erville
action
ĠLor
etto
Ġdeployment
amy
Ġalloy
Ġmarine
Ġscaffold
ĠPR
estine
ĠOral
info
Ġclinical
shot
Ġyog
Ġdemonstrating
Ġabruptly
ĠHenderson
ĠSouthwest
ĠShannon
Ġpropriet
ossa
ĠPrayer
omorphic
ĠTaken
antis
Ġobjectively
Ġfinely
foot
ĠString
fight
ĠBird
Ġrequests
ifter
Ġscaled
Ġobstacle
Ġyourself
akra
ĠAbs
Ġilleg
etime
Ġanthem
ĠBoyd
Ġclarify
Ġexpelled
xc
Ø©
Ġchicken
Ġclearer
Ġtender
Ġillustrating
PW
Ġcataly
ĠSoci
but
ocytes
Ġconfiguration
Ġflux
Ġkeeper
ĠBio
ãĥĩ
Ġgrooves
Ġunacceptable
Ġencompassing
Ġintent
ĠServ
Ġscaff
Ġbinds
Ġstroll
human
`
Ġraw
VC
ĠCourse
ĠAB
Ġexploring
Ġtragedy
Ġconsuming
orge
ĠClem
Ġsheets
imir
Ġstray
Ġmax
Ġcrus
arily
Ġpuppy
Ġdisgust
Al
Ġdru
ĠText
ĠErin
Ġvinyl
Ġmasterpiece
ĠOrth
ĠPlain
ĠFal
Ġtool
ility
Ġhats
Ġremarkably
annon
Ġcluster
asia
Ġdocumenting
anan
atsu
Ġdistributor
Ġoverview
andidate
Ġempowered
requently
Ġaddict
Ġmetast
Ġsparse
ounces
ĠKaren
Ġvarieties
otion
ĠTurning
sid
tum
Ġshields
plan
ĠHitch
Ġvain
Ġppm
Ġgrating
bourg
ĠShell
atically
comb
Ġillust
ĠAccount
ĠInsurance
Ġinflict
ĠGoldman
ashing
Ġwig
yes
Ġreferral
Ġburns
arial
Ġvoc
itten
Ġmicroscopic
ibility
Ì
akers
RI
wt
Ġexchanges
Ġpoll
Ġcorrectly
Ġabrupt
Ġpall
identally
Ke
Ġhostility
Ġcomet
asses
Ġaunt
Ġdepend
ĠUkraine
rief
Ġbubbles
Ġchocolate
Ġ241
rone
Ġconfirms
Ġpac
ĠClock
ĠShepherd
ĠSpecific
à¸ģ
yt
aline
ĠMalta
Ġerupt
Ġhomeland
Ġunint
osc
ĠSwan
umor
ĠNeg
Ġawaiting
Ġbarriers
Ġcomb
Ġpunish
Ġdevelopers
relations
Ġsynthes
orman
plot
efs
Ġfest
Ġradioactive
ĠTreg
Ġgrease
ĠElliott
ĠClarke
Ġregret
Ġmit
ĠVi
ĠXia
eted
Ġlaunching
Ġticks
rified
icol
lections
Ġtrek
oltz
iatric
Ġregeneration
dehyde
itive
ĠVladimir
Ġrenewable
ĠProperty
ground
Ġposterior
rator
ĠIde
itories
Ġnitric
Ġshrimp
year
Ġnutrition
cards
antom
recorded
shirt
UR
ĠSpecies
Ġsmallest
ĠMunicip
Ġliking
Ġrighteousness
Ġhosts
chell
Ġdeer
ĠTurks
Ġtricks
culate
Ġfrequency
Ġsanitation
ĠDeterm
gery
ĠHert
ĠNoble
ĠRib
Ġexpenditure
Ġbusy
Ġunhappy
Ġunconventional
atal
Ġencourages
plain
occupied
Ġdeprived
Ø¨
ĠRic
Ġdiagnostic
Ġlig
ĠWriter
Ġpersonalities
loo
Ġlobe
Ġfingers
osing
Ġ389
Ġplaster
Ġreminding
Ġmisunderstanding
service
Ġcosting
Ġrefreshing
oust
Ġfib
Ġstabbed
Ġfilmmaker
Ġphilosophical
una
Ġfootballers
Ġhasn
Ġcontests
Ġdrap
Ġpardon
Ġbarbar
ĠCron
Ġimmune
Ġintellect
ĠDays
Ġstagn
ĠRequest
ĠSingle
Ġrecession
ĠCasino
Ġspoil
ĠSang
Ġtreaties
Ġjaws
Ġsynd
Ġtraders
habil
oclast
ĠDakota
shadow
ĠIce
Ġore
Ġphysic
Ġcavity
erves
Ġexpl
ĠCit
ĠDrew
ĠTwelve
fil
Ġprocedure
ambo
Ġhomosexuality
ĠTreatment
Ġtales
Ġrationale
Ġ208
Ġbuilds
ĠDodgers
Ġloves
ults
ĠFacebook
river
annel
Ġinfamous
ĠFigure
ĠFreeman
Ġax
oprop
Ġcanoe
ĠMIN
icide
isters
Ġprocessed
Ġpointless
ĠCafe
Ġcompare
Ġweary
Ġdisseminated
ĠDad
åľ
isia
onder
Ġrent
Ġpolymers
ĠEck
ĠNH
atinum
Ġimmig
Ġbranded
uration
En
Ġrecept
Ġrecruits
Ġentrepreneurs
Ġ3000
ĠIcon
imedia
ĠJiang
Ġelectorate
Ġbrave
PP
Ġcalculate
Ġleng
dry
Ġ316
ĠIa
ĠThorn
Ġneighbor
ĠCode
areth
ryl
Ġgender
ĠElder
ĠEcho
eyer
Ġtyping
Ġprevents
Ġmeg
chron
Ġimmortal
Ġlovers
Ġrehears
Ġdinner
Ġreject
Ġaccumulating
Ġ256
Ġcirc
ĠBreit
pired
Ġcountless
Ġancestor
ortex
ppo
Ġdecre
Ġcardinal
uria
Ġlocalization
ĠHerr
olds
oning
fecture
ork
Ġsystematically
ĠAE
Ġtempting
eered
Ġtribut
Ġviable
ĠEmbassy
×
Ġcliff
Ġpracticed
Ġreceptive
Ġsquir
ĠOlivia
Ġcarriage
ĠNumerous
Ġrogue
orphic
Ġbloc
ruce
Ġskeptical
Ġtire
uran
Ġauthoritarian
ĠKazakh
ĠAgainst
ĠBrisbane
ĠOperating
adh
ĠObama
ensibly
Ġconstrain
ika
Ġmocking
beam
Ġcircumstantial
iddy
Ġjersey
rio
Ġmint
Ġreplication
bands
Ġrede
Ġstatistically
ĠSupplemental
¬
Ġimproves
ensing
Ġobliv
Ġdrift
Ġmobility
idian
MP
ĠBing
ĠTun
Ġcorrosion
ĠCache
NR
Ġpolic
Ġsequ
ritical
ĠRPG
Ġlobby
ĠEcuador
orporated
lsen
Ġerased
ĠStokes
ĠHerbert
Ġunavailable
DL
Ġhints
tons
ĠGolf
ĠLeah
Ġexaminations
Ġslower
itone
claimed
Ġrecreate
Ġwrit
omat
ĠHomes
Ġfolks
Ġfir
oscopic
rf
Ġdevastated
ĠMU
ĠActing
Ġlips
ĠHence
aby
ĠView
Ġsteer
Ġskilled
Ġoptically
rake
piece
ĠBY
Ġaddressing
ĠTraffic
Ġexpertise
tz
Ġtobacco
Ġmathematical
ä¾
ĠMickey
Ġutter
Ġshelf
Ġsurpassed
Ġpackaged
Ġseismic
ordan
ĠSacred
ĠSidney
·
Ġcrystals
eties
rawl
ĠIsabel
ĠBot
Ġyouths
ĠThread
Ġtransmit
apse
Ġclarity
anced
ĠQC
Ġevolving
Ġbury
Ġspotlight
itors
ĠAttorney
Ġadopts
Ġturtle
Ġdirty
Ġ625
Ġtaxonomic
ĠGas
ĠSpani
Ġmercury
Ġencore
Ġrequesting
ĠRegulations
Ġcanned
Ġpreview
Ġlots
Ġbipolar
ĠWhenever
ĠLÃ©
Ġpsy
Ġrenew
Ġpeaceful
Ġsubmitting
Ġwhistle
Ġcheaper
Ġmigrated
Ġhearts
ĠCriteria
iken
ĠBryan
orton
joy
Ġ288
rob
manship
ĠJessica
Ġmismatch
ĠRelations
ĠLans
Ġcontrolling
Ġsuitability
Ġ525
Ġcorrespondent
ĠCG
aky
Ġresiding
ocial
cks
Ġ2500
aren
Ġbail
Ġhiring
idespread
Ġtranslate
Ġestimating
Ġoversee
Ġballet
Ġclarified
Ġloads
Ġderivatives
Ġcomma
Ġboiler
ĠOptical
Ġexh
Ġhelium
Ġmaid
Ġincredible
Ġpresumption
ãĤģ
Ġasp
Ġborne
lying
Ġintellig
Ġfacilitate
Ġoverlap
ĠRule
Ġexplanations
Ġuttered
stances
ext
Ġconsensus
Ġperman
FOR
ĠCelt
ourier
Ġcolloqu
log
ĠSerbian
Ġimpart
Ġreactivity
pid
Ġversa
Ġmedi
Ġclimb
Ġminorities
asting
charge
Ġunderway
otti
Ġreplica
Ġbiom
ĠWhilst
Ġrequirement
Ġlucrative
ĠWilcox
ĠRise
linger
Ġcommodity
itional
ATA
rr
esis
Ġdominating
Ġ225
Ġbullets
ĠTehran
Ġja
otrop
phalt
Ġexhaust
athi
Ġcoordinating
ĠSilva
Å£i
Ġcontinually
Ġacquiring
Ġlogistic
Ġimpulse
ĠPaulo
Ġweaknesses
Ġrelie
ĠICU
Ġnude
Ġmunicipalities
Ġleaf
ogram
Ġbag
Ġdragon
Ġboring
Ġfeasibility
Ġconvenient
Ġeman
Ġ462
Ġairborne
iosity
Ġbouncing
ĠMolly
perate
ushed
Ġunseen
Ġplating
Ġdelivers
ĠBarr
Ġaffects
Ġreply
Ġasset
Ġcultured
Ġstaining
Ġterminals
Ġinvestigators
ĠElle
ĠMetal
Ġdad
Ġcontag
Ġuniforms
ouds
Ġignores
Ġtrait
iji
Ġrevert
Ġdenies
Ġhorizontally
Ġmediated
DAT
Ġjur
ĠCic
Ġclip
father
Ġletting
iture
ĠDelhi
ĠHydro
color
Ġ187
Ġexcessively
ĠGene
Ġaccordance
åħ
Ġinstallment
cover
locking
Ġgri
Ġdefendants
Ġscreens
Ġwholly
Ġestablishes
Ġcompulsory
07
Ġpleaded
Ġmorph
Ġinevitably
uru
uable
stay
Ġforeigners
uer
loaded
ilated
aughter
Ġsuffers
Ġdessert
Ġdanced
Ġ668
ĠFranÃ§ois
Ġeagerly
Ġsenses
Ġreplaces
ĠTet
Ġ276
Ġthanked
Ġrobes
Ġcomplemented
Ġbeer
Ġfranc
Ġerroneous
ĠØ§ÙĦØ£
Ġripped
Ġmars
ĠNg
ĠLouise
erne
Ġupdating
Ġdesir
Ġmushrooms
Ġpurified
Ġawful
neys
atre
Ġcombining
Ġlun
ĠHIV
ĠRams
Ġincorrect
kap
Ġnicely
Ġshouts
heid
vation
Ġribbon
ĠGul
Ġinsistence
Ġunsigned
ilo
Ġdumped
ĠRaiders
Ġclick
SH
Ġgoverns
ĠRestaurant
ĠLiterature
Ġauthorization
ĠBarack
Ġreappe
Ġshouting
pes
Ġshade
Ġrefuse
Ġdisclosed
ĠNone
ansion
oderm
Ġreconc
Ġgreens
Ġpretend
Ġuniversally
ĠMeaning
maid
Ŀ
ĠAllah
ĠVis
adic
ĠTeams
Ġmanipulating
Ġdetermines
Ġrecurrent
roke
sever
Ġintend
Ġinsurg
ĠAmazing
ificial
ĠLines
verting
ĠRising
Ġ570
ocre
Ġmaker
Ġflora
Ġdiscouraged
Ġpreliminary
Ġ184
Ġconsume
Ġsticks
ĠMississippi
ĠLands
mas
ĠOften
Ġsusp
oser
Ġnoteworthy
ĠAuthors
Ġrotten
Ġresembled
Ġmodelling
Ġod
Ġangular
Ġgenuinely
Ġventures
Ġprov
Ġmerging
ĠPride
Ġwelcoming
Ġglands
Ġbrow
Ġprinces
ĠLeave
Ġcuff
Ġlithium
hor
hog
imus
Ġabnorm
Ġ202
Ġadministrator
ĠBalt
Ġlabels
Ġderives
Ġplaywright
Ġchin
Ġrecipients
inners
bm
Ġbike
Ġupdate
ĠAnimation
dos
ĠSpeaker
Ġteenagers
Ġinstitute
US
anya
ĠDiscover
heng
Ġlecture
atching
Ġinmates
ĠFry
Ġframes
Ġmega
Ġmandate
Ġchased
ĠBreak
ĠBBB
Ġdrawbacks
ĠInstitution
Ġpouch
ĠKick
Ġstam
LM
ĠArgentina
Ġoverwhelmingly
Ġenable
ĠBol
Ġacquainted
ĠBul
Ġneglect
idents
Ġmyeloid
ĠRuth
Ġneon
ĠCH
Ġey
odd
ĠDre
Ġlyn
byterian
Ġpriv
gren
Ġoste
plex
Ġsque
arf
Ġinvading
Ġfert
ourt
Ġkidnapping
ĠThor
Ġcompetitor
Ġimportantly
Ġcontacts
Ġreplen
Ġzero
Ġisotope
py
Ġberries
iation
desc
Ġregulating
selling
ĠHipp
ĠRandall
Ġdelightful
Ġprayer
ĠFigures
eor
ĠMaj
ĠBec
jun
avas
atoes
Ġfals
Ġcontributes
Ġecosystem
Ġsnap
anal
ĠSoccer
Ġevidenced
ĠFran
Ġbrav
Ġfix
Ġrockets
bre
ĠOriental
Ġpreseason
auc
Ġmanufacturers
Ġgauge
Ġhor
Ġnesting
Ġreporters
Ġcompat
Ġ293
Ġcontexts
rious
Ġancestry
iem
thy
ĠHep
ĠIstanbul
liner
Ġspe
Ġinformant
cker
idad
Ġchemically
GA
uts
wang
generated
Ã¡c
ĠXL
iw
Ġdisple
Ġpatriotic
Ġpeasants
Don
Ġshuttle
ĠEleven
Ġportraits
Ġwaist
Ġscarc
Ġtackling
ĠMcCain
ĠSterling
Ġtables
Ġras
ĠMelbourne
Ġbarred
ĠLLC
Ġblends
Ġapproximate
ĠOtto
ĠPaint
igi
Ġspike
Ġlin
ourcing
Ġtrailing
Ġfilling
ĠTypical
ĠFriday
pling
Ġdangers
acha
Ġirrespective
Ġcatalogue
Ġune
Ġcharcoal
Gl
ĠPrague
Ġsust
ensch
Ġvaguely
Ġbucket
roleum
rose
iza
Ġvoluntary
Ġenvis
Ġinsisting
ĠEaster
Ġincorporation
Ġinconsistencies
Ġterrible
tre
Ġnoun
arium
Ġdenotes
Ġinsights
fon
quez
ogly
PR
Ġcongen
ĠBuff
Ġautomated
Ġdiscounted
ĠFile
TL
Ġbuses
igration
ogn
Ġcontributors
uggest
ĠFan
ĠAj
Ġmilieu
Ġfundamentally
mor
Ġflap
Ġdonor
Ġtightly
ĠTate
Ġdomin
oyle
ĠLiu
Ġcommonplace
Ġchore
ĠLen
Ver
Ġrestart
izard
Ġtheological
Ġ146
Ġinvestig
à¸±
Ġtrench
Ġsparkling
ÙĦ
ĠGrowth
Ġdoubling
Ġchancellor
asers
ensation
Ġobedience
Ġpenn
Ġdisturbances
Ġunsuitable
aser
ĠCollection
Ġrefusing
kas
Ġreasoned
ĠDM
Ġsatisfying
Ġbothered
Ġmistress
Ġproportions
Ġclearing
iplex
ĠClasses
bus
iction
illed
Ġfruits
ST
ĠProvincial
Ġ103
Ġmagistrate
Ġquotes
Ġjournalism
Ġrepresentations
Ġgrip
Ġalgae
Ġclue
techn
Ġillusion
ĠTrip
Ġlaser
Ġcurb
Ġbacon
Ġdischarge
Ġthy
ĠEngineers
Ġboo
ĠMedicine
ĠGriffith
Ġadjustments
mail
Ġstunned
Ġfighter
Ġval
weed
Ġdisciplined
Ġspecialists
vertising
ĠOwn
Ġsuburban
Ġsmashed
Ġbodily
Ġindex
ĠWent
Ġlantern
Ġdrives
asse
Ġcoats
AP
ĠHillary
ucent
Ġnoon
ĠPret
Ġanomaly
mpi
ĠRodriguez
ĠDoes
ĠRaf
Ġoutrage
Ġdevoid
ĠCran
Ġambitions
ĠCoach
ĠNotre
Ġpunch
Ġdizz
Ġtoilet
ĠNZ
ĠLeader
Ġexpects
Ġcock
SF
ync
Ġundert
Ġindication
Ġphosphorus
Ġexcellence
anson
bons
uffy
etus
Ġ560
Ġrelying
Ġdisagreement
ĠTheme
ĠLect
Ġstalled
Ġresid
Ġgre
arel
Ġshipment
Ġfasc
Ġbal
ĠAcad
ract
Ġexam
686
ĠLib
Ġbreasts
stad
ĠWhether
Ġwarranted
Ġdurable
Ġrecreation
Ġwildly
Ġscenery
igne
Ġbroadcasts
Ġexperimentally
jar
Ġfollower
Ġfamilial
Ġelbow
Ġpathways
igh
Ġantagonist
GO
Ġanalytical
Ġoffspring
Ġrif
rise
Pol
Ġresponding
Ġharassment
phal
Ġprescribed
ĠLam
ĠAT
Ġarise
Ġbases
Ġobtaining
Ġrestraint
èª
èĬ
ĠBess
Ġstance
Ġmechanics
Ġmattered
ĠTonight
ulls
deck
Ġunrelated
dir
ĠCensus
Ġillustrates
eli
Ġgallons
Ġembarrass
Ġcomplementary
Ġprivacy
opically
enti
ĠPit
ĠMons
operative
Ġimposition
related
Ġseventeenth
ĠâĢĭ
Ġcopying
Ġjudiciary
Ġceil
bia
Ġpoisoning
Ġoutdated
gon
Ġbarn
posing
grass
Ġmoth
Ġstaged
ĠPA
asury
Ġconnections
Ġdealings
Ġstair
Ġmagnificent
ĠProfess
Ġfashioned
Ġmentally
Ġconcent
Ġprecipitated
Ġjoke
Ġfa
Ġ195
Ġartifact
Ġconfusing
ĠRd
Ġunfair
Ġmodifications
rico
ĠSaudi
Ġaspir
Ġstret
ovsky
Ġstylish
Ġrugged
ĠPhysical
blem
hess
Ġexpresses
balls
Ġcompetitors
ped
ĠDa
liness
Ġiniti
ĠVic
Ġdeliveries
Ġ2030
deep
Ġswe
Acc
Ġprefix
inence
Ġweaving
ĠCost
ĠAU
Ġhadn
ĠSÃ£o
Ġsympathy
Ġlith
agna
ĠBasil
Ġlect
Ġfare
ĠTrevor
ĠGavin
Ġnotebook
ferr
Ġviolating
Ġflower
Ġoutlet
atable
ĠSugar
aps
Ġevangel
ordered
Ġconsum
ł
ĠGri
Ġgem
ĠSend
Ġventral
Ġ248
Ġemph
Ġupwards
Ġversatile
inating
Ġmanip
ĠCruz
Ġriot
ĠMW
Ġrepay
inker
Ġerect
Ġprotesters
Ġpersist
zek
Ġinvestigator
à¸£
Ġpromotions
Ġhandlers
Ġequality
Ġenthusiasm
Ġfait
Äĩ
Ġcoy
issued
Ġspont
Ġcooper
Ġdealers
Ġmonetary
Ġsle
Ġ446
entary
Ġwonder
Ġdest
Ġdisappointing
Ġathe
ĠGoodman
Ġ128
ĠEdwin
iev
Ġlets
Ġanswering
oa
ĠBuddha
Ġinhibit
ĠLambert
Ġthoroughly
ĠKarn
grown
ĠSchwe
Ġencouragement
ĠBlind
Ġsynthetic
Ġ302
Ġunlawful
Ġakin
Ġimmun
ĠCum
ĠAnglican
Ġodds
ĠAnaly
ãĥĲ
Ġbesides
ĠPhilipp
Ġresultant
para
ĠSupport
Ġimpractical
ourse
ĠPAS
ĠPoly
Ġ159
Ġmethodological
ĠAcid
Ġlawsuit
osti
Ġechoes
Pass
Ġsafely
ĠStatistics
ĠASC
Ġsleepy
unc
Ġeste
ãģ¤
ĠTyr
neg
Ġdod
Ġvo
Ġuneasy
Ġ181
Ġhierarchy
Ġcats
Ġconform
Ġ1600
Ġquatern
NE
ĠVon
ursed
Ġineffective
Ġlogistics
iÃ³n
Ġsecretly
Ġjoins
Ġfro
Ġ354
them
ĠMaur
thia
inf
Ġdecks
ea
ĠSom
Ùģ
Ġze
Ġloans
Ġdelir
ĠPreviously
ĠFang
Ġ--
Ġinserted
Ġseparates
Ġrecalling
Ġfulfilling
Ġscarf
ĠPurpose
Ġradicals
Ġwandering
arin
quito
Ġlean
ĠPET
liver
Ġaccusation
ĠPut
grave
ĠSinclair
Ġsor
ĠLED
atisfaction
Ġparadox
Ġdetectors
Ġpract
Ġincompet
hart
via
Ġvol
Ġsubstrates
Ġdetectives
Ġidentities
aryn
Ġskirt
those
Ġdisk
Ġgenera
ango
uh
IG
inite
Ġ279
Ġrevision
fat
Ġpolygon
acher
Ġpredomin
oyer
ĠDayton
Ġstumbled
chie
izz
Ġgrief
Ġpoorer
Ġrecognizable
ĠBeverly
names
ilos
chair
Ġsop
ĠMarvel
Ġflo
Ġ375
Ġtranscend
Ġdifferentiated
ĠNovel
ĠLafayette
Ġcolleague
ĠAnders
utes
Ġobscured
Ġmilitant
Ġcorrelation
imal
Ġinstinct
pendicular
anth
Ġincarceration
Ġvine
ĠCul
ĠReports
etary
Ġexchanging
ĠBac
ÑĢ
Ġaffiliated
ror
Ġpseudo
ĠMcCoy
ĠCann
Ġtruck
Ġdiversity
ĠPearl
occ
ĠSurv
Ġcolonel
Ġframework
Ġeurop
Ġprophet
Ġbasically
ytical
ĠFors
Ġrenewal
ĠMov
city
rogate
aju
Ġsurely
quis
acycline
Ġnode
ĠSiber
ĠManit
Ġfunctionality
Ġmaple
spe
Ġassets
ĠSisters
ĠAy
Ġgown
ĠDol
ĠHoffman
ĠSeoul
plus
Ġfolding
Ġmacrom
çĲ
Ġchromatography
Ġgag
Ġprivately
Ġutilizing
Ġaffinity
Ġgeneric
Ġunconscious
Ġindifference
ffiti
ĠEsc
hind
Ġbehaves
Ġdemonstrations
Ġadv
Ġmater
Ġfilmm
cott
rence
sized
ĠWindsor
Ġemerging
rops
ĠArchitect
Ġparked
elman
Ġproposing
Ġ201
Ġdeem
Ġimagined
ĠKris
Ġsilly
Ġinability
Ġinsane
CF
apple
Ġpicks
Ġarrogant
kn
Ġamplified
Ġinspiring
Ġoverhaul
Ġiv
Ġstud
Ġtailored
Ġtimeline
nez
Ġnervous
Ġmarrying
BU
ĠScan
found
Ġcassette
Ġhassle
ĠEvolution
Ġheader
ĠAcademic
Ġversus
ĠAuthor
Ġprohibiting
Ġcircumstance
agin
Ġenzymatic
UP
fected
kom
Ġincompetent
Ġwebsites
Ġperfection
Ġfores
ĠSelection
stant
ĠWalsh
Ġreplies
Ġcrafted
Ġovercoming
Ġinitiate
ĠØ§ÙĦ
Ġ361
Ġvirtual
Ġpursuant
ĠJulia
osta
umbling
Ġapplying
ĠLM
ĠSoftware
Ã§
Ġ457
Ġblankets
anding
Ġfootsteps
cons
Ġinsists
Ġincred
Ġsuspicion
ĠNHS
irty
ĠObject
Ġdistribute
Ġvanished
ĠÎ¼m
Ġhydr
Ġimitation
Ġobviously
auer
Ġclot
ĠEur
grand
Ġcomplet
Ġpsycho
ĠTR
Ġpartnerships
alted
ĠMajesty
Ne
ĠBless
Ġcomprom
Ġ341
ĠSpec
nb
lower
ĠNap
Ġvested
ĠND
Ġcelebrities
500
Ġforgot
ĠDale
fn
Ġintrigued
ı
Ġrept
ĠAnto
ĠThir
ĠArabian
arious
Ġinaug
Ġspouses
Ġlam
Ġranc
Ġoutcome
Ġbrute
Ġlamp
ĠGender
aper
Ġdisciplines
Ġrunway
Ġwasting
Ġspectators
åĲĮ
Ġmothers
Ġcorrected
Ġfroze
ĠÅł
ĠMagnetic
ĠLeigh
ĠEt
ĠBear
ĠJet
ulators
Ġtutorial
eries
Ġparte
Ġfavourable
aa
Ġcycling
tit
Ġlovely
Ġcompatibility
bal
Ġfatty
culture
Ġwouldn
Ġwheels
Ġsystematic
Ġligament
Ġintersections
ĠIndians
Ġ390
Ġcatalysts
ĠLav
ĠTitle
ĠStructural
ĠCourts
Ġappreciation
Ġnatives
ĠTol
ĠViol
Ġamusing
Ġmutations
ĠWeiss
ĠChanges
ativity
Ġscary
Ġinfertility
ĠKang
ĠRey
Ġ337
Ġdrowned
ĠMoses
ĠGraham
Ġreads
ĠKay
Ġ161
Ġvirt
Ġadjud
Ġconceive
Ġ257
Ġrocket
nar
Ġpeculiar
lict
Ġcommencement
Ġexcessive
esque
ĠUnfortunately
ĠJudge
ĠNem
enter
heimer
ĠNorfolk
Ġspouse
Ġgotten
iscopal
Ġrapt
Ġunpaid
Ġfunnel
Ġastonishing
Ã©n
kerchief
Ġabnormalities
Ġ349
Ġvulgar
Ġvengeance
rend
Ġdairy
ĠCruise
Ġrefusal
oup
Ġexceedingly
otive
Ġcontracting
Ġfavorites
table
poral
Ġlent
Ġtranscribed
Ġintentional
Mah
Ġarticulated
Ġdirective
chin
imoto
Ġfoss
Ġgrabbed
ĠAnna
Ġcreature
AH
eston
ĠFlag
Ġquoting
Ġoutgoing
yy
Ġfeminist
ĠSaints
Ġcub
ifferent
Ġconvince
uld
ruct
Ġseedlings
Gr
ĠNuclear
Ġfigured
ĠKurdish
Ġembrace
Ġknowing
rano
Ġwithstand
ĠOrganisation
Ġoverhead
Ġselfish
Ġcrypt
order
Connor
ĠCumm
ĠSuddenly
Ġclim
Ġshapes
typ
orio
itate
Ġwrapped
Ġorganize
Ġshower
ichi
alis
Ġcrossover
ylvania
ctic
ience
Ġcompensate
Ġmasc
ĠBloomberg
Ġoverlapping
arter
Ġsworn
leigh
ĠConsult
Ġrejecting
frast
urity
mp
Ġchiefly
ĠPros
Ġthirst
ference
Ġtrop
ĠActs
Ġmetap
hthal
Ġemitted
Ġviewing
Ġsorted
Ġperfume
ĠAna
ĠEz
Ġtransmitting
acent
Ġworries
Ġbuying
ãĥ¼
ĠTrent
Ġnotorious
Ġnobility
Ġke
ĠFelix
esa
Ġflares
ĠNeither
Ġspanned
ĠBecker
ĠYan
ĠDate
ĠContrary
ĠGap
TV
Ùĥ
Ġsplits
ilinear
ĠBold
GC
Ġunfavorable
Ġkeyboards
Ġspontaneous
Ġcompetent
Ġaph
Ġplayful
Ġthreaten
Ġindicative
Ġinvented
ĠCredit
ĠSud
erie
Ġunderneath
emed
åĬ
Ġpapill
aways
Ġacademy
Ġcopied
ajor
ĠWere
olan
Ã±o
Ġambition
Ġexotic
Ġunions
ĠGreeks
Ġbot
Ġrecovering
Ġinaccur
Ġlatitude
Ġfathers
ware
Ġcessation
Ġranch
Bg
ĠBret
Ġmount
Ġimpose
domin
ĠâĢŀ
ĠData
Ġsilk
Ġbeef
Ġinduce
Ġded
Ġdive
pled
ĠShen
Ġevade
Ġtreating
ĠNate
Ġdriver
Ġcolonization
game
ĠLay
ĠWhy
umann
endo
Ġ254
Ġspecifies
ĠSpecial
Ġmoiety
Ġ5000
çı
umbles
clone
Tell
ierno
ĠSessions
åĲį
chat
Ġropes
fy
Ġcoefficient
cliffe
enberg
ĠCreator
olutions
step
ĠGould
ĠMouse
anean
Ġconverge
Ġrolls
Ġmem
Ġkin
criptive
Ġalmond
wives
composition
ĠGloria
etra
lt
culating
shop
Ġcapita
Eye
Ġchecking
ritten
Ġincorrectly
Ġconstituent
opsis
Ġicy
ĠPeak
ĠVeget
zn
ĠCele
Ġnuts
igma
ochemistry
ĠDep
optic
Ġyearly
Ġentertain
season
ongo
BP
asa
far
arat
lab
Ġnodding
velopment
rar
mile
Ġster
dis
Ġsheriff
herence
ocene
ariat
reements
ãģŁãĤģ
Net
Ġfacial
cam
qi
Ãł
uper
Ġmetallicity
ĠGarrett
icked
Ġpolicing
rophic
ĠSense
Ġstatistical
Ġbullet
Ġbounty
ĠQatar
lace
Ġsalient
ãģª
ĠITS
Ġholder
fere
åİ
Ġfossil
ĠBehavior
Ġparsed
Ġvapor
è²
lasses
essions
gence
ĠScheme
ĠLaf
Ġdirectives
cul
Ġful
estial
blems
ĠNetflix
ĠMedium
ĠInvention
lich
ĠDH
Ġelabor
Ġillumination
pire
oly
Ġcling
ĠBelf
ische
iane
pent
Ġmaj
ĠCalder
Ġguards
sen
Ġgentle
Ġdigestion
ĠBarber
Ġcalibrated
lat
Ġ609
Ġbowls
Ġvolunte
Ġdrunk
psy
ĠBacon
Direct
omatic
ASH
dat
dev
Ġgrind
requ
ĠAF
adan
uge
Ġtrades
ĠVor
Ġperf
ĠSecure
amel
ailand
åį
ĠAS
jas
Ġdaytime
Ġatom
iousness
Ġenriched
enz
Ġexpose
ĠGFP
Ġdeaf
åĤ
ĠTorah
Ġscanned
×Ŀ
Ġjeopardy
udo
ĠDisorder
Ġmemo
ricks
Ġinflammatory
Ġelectronics
Smith
js
Ġactivist
Ġfibr
alus
Ġpenny
rible
ĠOpening
ĠHallow
Ġthresholds
Ġbios
ÎµÎ¹
prove
ĠØ¬
ĠSector
las
quot
Ġgrazing
anol
leader
ĠPatent
Ġinfluencing
Ġantitumor
Ġkillings
inese
Ġbip
Ġrob
Ġglove
Ġchickens
Ġ472
Ġ286
Ġbehave
Ġcabbage
sg
verb
ľ
enburg
004
aneous
UG
ĠTao
cho
Ã¡d
Ġmotif
Ġcurrencies
ĠFun
ĠMajority
Ġlicenses
Ġsulfate
Ġnitrogen
vention
VS
Ġpsychic
iological
ride
CI
ĠServe
§
sche
Ġabdomen
Ġtolerant
ku
Ġfiltering
Ġourselves
Ġhearings
ucci
Ġchlor
Ġsqueezed
Ġsupermarket
Ġporch
airo
etm
Ġreve
Ġaf
Ġshoppers
isely
ãĤ·ãĥ
Ġabst
Ġclassify
ĠSimmons
ĠPerkins
alc
rooms
ĠPurple
lis
Ġpermitting
Ġflip
ifi
Ġthickness
ushi
zig
alin
Ġdeficiencies
ĠWend
Ġbiased
ject
Ð½ÑĭÐ¹
Ġwalked
Ġpedestrian
estion
ĠOpt
Ġdismissing
Ġgradient
cerned
ĠShir
Ġvocational
ĠCurry
Ġparanoid
ĠOH
image
enh
Ġcries
Ġchloride
iella
Ġrocking
district
gang
ĠHist
iversary
Ġageing
Ġreprinted
Ġhypocr
xt
Ġinverted
aram
ĠÎºÎ±
Ġmurders
Ġdroplets
lord
itory
arent
Rob
ĠNotification
arettes
ĠTechnical
Ġmotto
Åĵ
ĠTable
Ġdamp
Ġribosomal
zon
Ġphylogen
pur
asus
ĠScient
urop
brand
committee
GM
ĠConstit
Ġ464
Ġtuned
vidia
ĠUP
zk
offs
ynes
ictionaries
Ġgrateful
clock
ĠHide
Ġ=
pone
activity
ĠEb
Ġlazy
Lean
El
Ġuk
ĠSteele
Ġcollar
Ġmethyl
Ġwhale
pers
plic
pad
pta
Ġspindle
Ġinventor
ĠMorocco
ousand
pres
yel
Ġreceipts
derer
Ġdestroys
uffer
Ġchilling
ensity
ĠJudicial
Ġprof
ocity
zia
ĠIS
å»º
hern
Î¯
Ġstraps
iek
pection
ilty
cke
rud
omorph
ĠMartha
see
Ġporous
Ġtornado
Ġsph
erals
Ac
ĠBatman
Up
aci
tha
ĠCR
heading
Ġcontinents
Ġeth
ĠCharg
lings
ceptive
pop
olo
Ġbargaining
respons
ĠUnits
valued
ÐµÐ½Ð¸Ðµ
rosse
Ġaffirmed
det
ento
izzard
ĠGore
washed
ĠHem
ãĥ³ãĥ
Ġprocure
Ġmascul
icki
Ġallegation
marks
oise
Ġcoordinate
Ġlan
Ġ490
hev
undry
ĠBlu
Î¿
Ġsaturation
Ġnightmare
Ġhate
ieri
ungen
nos
lete
redit
Ġlac
å¾Į
orphism
istan
chol
ĠIC
Ġgrams
Ġsuite
Ġreson
Ġonset
gett
imento
Ġspectroscopy
rends
ĠNob
ÏģÎ¿
Ġbullying
Ġappe
omorphism
Ġconscience
ĠKos
noise
gas
again
akk
oken
ĠDodge
Ġproton
fessor
Ġsecrets
Ã©tÃ©
aband
Ġcortex
Ġcros
rations
Ġreprodu
Ġsyntax
ping
otrans
Coll
ignant
æ¸
ictor
ĠLal
Ġgenerator
ĠKre
opin
Ġprecursor
suits
aea
alta
Ġpretext
erre
stack
isp
Å¼
Ġdetermin
Ġqualities
APS
Ġcane
Ġprejud
Ġquadrup
Ġsurviv
Ġconvenience
orie
imar
æĿ¥
ĠResources
ä¸Ń
ĠÃļ
Ġhorrific
ĠSchr
ĠTeachers
rix
Ġcrossings
late
ĠPenny
Ġcolorful
Ġdisordered
ipation
fo
Ġlaughter
reditation
Ġarrog
Ġantif
Ġliquids
ĠChange
Ġads
Ġreproduced
gru
otrophic
Ġwise
ighbor
asser
UK
Ġmortgages
itched
ĠDA
Ġpockets
Ġadmin
Ġaffective
ĠReason
Ġoutdoor
represented
Ġarom
Ġbonding
ĠPhotograph
itty
script
Ġschema
Ġthumbs
Ġsuccesses
illac
ĠKro
ĠES
Ġlawsuits
æŃ£
ĠUt
ĠWrong
ĠUkrainian
nt
alla
dock
load
Ġbleak
avour
vard
é¡
oge
Ð°
agent
iban
worthy
asi
ĠPhilosophy
hell
ĠPence
ivities
acia
spring
clic
final
rand
ĠPlanet
heat
Ġ233
Ġhumili
afa
ZE
iri
cca
ific
Ġencephal
Ġsequenced
tri
Rank
adj
Ġpesticides
Ġ239
ĠExtension
yst
Ġdom
Ġcour
aware
Ġredistribute
idding
connected
250
Ġsab
Ġmalicious
ÏģÏĮ
othered
ĠBeh
Ġappliances
New
Ġterrified
Ġsizes
ellate
ĠVideos
stic
Ġcounselor
ĠMigration
Ġmomentum
ija
èĤ
eworthy
ĠPay
Ġmanipulated
ĠEllen
hering
aque
itution
ograms
ĠJacobs
proof
ontal
Ġcommodities
imation
éĩĮ
Ġcytokines
arynx
Ġgenuine
icating
ĠQuinn
irmed
Ġorganizing
posts
Ġtrem
Ġlays
shield
Ġdit
Ġvulnerability
ogi
Ġdeclare
Ġslid
Ġchrist
ĠTheodore
Ġprosthetic
exception
hetti
Ġenlight
bell
à¹Ī
Ġclaimants
iculously
ĠUnter
phony
ĠBend
Ġresentment
ĠExec
ĠUltr
ĠAires
Ġnutrients
lemental
Ġowns
Ġunwilling
Ġscripts
Ġoutward
pson
Ã¼h
Ġcrushing
ĠRemember
ĠCarbon
about
cia
Ġlymphoma
chet
ĠMeans
Ġelevate
ĠScot
agers
OPE
×¨
Ġschem
Ġnets
Ġinstability
enstein
ãĥĹ
ISM
ugh
Ã©r
ÈĻi
Ġcolleges
Ġstairs
hay
iÃ¨re
auge
Ġlact
Ġthroughput
Ġnose
Ġradi
Ġlodge
Ġinqu
Ġscrew
Ġcommits
Ġ2020
icht
Ġarrange
Ġ348
ĠHz
bid
acious
ossier
Books
ĠManaging
Ġcig
ĠCenters
fills
ributed
ĠThrow
arance
ply
care
HT
oprote
atts
puted
Ġextrap
ctors
Ġfaithful
ĠkeV
issa
umer
ĠKenn
uso
ogenous
Ġaccumulate
Ġfail
ĠWet
å±
boxes
Ġdunge
roid
Ġris
Ġviability
urized
women
Ġeg
Ġbrethren
Ġsanit
orc
ĠVolkswagen
CD
oplasm
atio
zza
1987
ĠNobody
league
ennel
EL
Ġpots
ĠHammer
Ġslain
Ġascent
Ġphotographer
uality
Ġoverturned
avez
tight
Ġdiseng
Ġnewsp
Ġgrocer
ĠVernon
ressor
wy
JJ
Ġpropri
Ġaggression
Ġ346
Ġfractions
ĠDoesn
Ġot
æĶ¾
close
Ġsolder
ohan
Ba
ĠWheat
akh
åŃ
arten
Ġtapping
Ġinvent
Ġmillenn
Ð½
AK
ãĤº
eks
ĠFoods
ĠVerizon
Ġantibody
ĠCrawford
ĠjÃ¤
Ġrit
Î½Î±
Ġgroom
Ġecosystems
Ġirres
Ġobstruction
egal
Ġtherapeutic
Ġpans
Ġgoat
wealth
Ġamend
enting
Ġchamp
itures
Ġkinda
ograf
leading
Ġlocom
ricular
Ġcout
Ġdoc
ĠScre
clair
ĠCoal
Ġmatrix
lle
hou
icul
Ġcontender
ĠInvestig
Ġspill
Ġwires
ivas
199
itness
ĠÎ¿
Ðº
mr
Ġfrequ
atar
Fix
Ġinference
001
ĠDans
Ġwine
Ġsteal
Ġfertilizer
name
holm
Ġfirearms
Ġcarriers
Ġconfession
è®
atics
Ġhav
got
Ġchlorine
Ġmetam
ĠBR
Ġdisruption
ĠMcL
claims
Ġparan
Ġwrongdoing
ĠMaz
Ġentity
idence
Ġpony
wart
Ġrestrictive
Ġtrig
wide
Ġcardiac
Ġpepper
Ġcooled
Ġmedicine
Ġplains
daughter
missible
Ġapex
à¸²à¸
aters
ĠNicol
arna
ĠMaps
thm
ĠVaugh
ocation
listed
Ġmarital
Ġencoding
ĠSever
Ġgrasping
Ġproposition
mil
ateral
ÑĪ
ĠLenin
Ġconditioned
aran
ructions
Ġligation
Ġanatomical
lif
Ġbob
Ġdecomposed
regular
ocument
aning
hetto
Ġrestaurants
alan
Ġneut
Ġcares
Ùħ
ĠØ£
Ġcleaner
erty
Ġwo
antes
Ġraped
Map
Ġimagine
Ġsoup
Ġgraphite
«
ĠCB
powers
ĠXXX
ĠNum
Ġquantum
Ġ367
ĠLandau
Ġfirefighters
Ġclar
ISE
product
Land
ĠAIDS
Ġbolster
idade
atham
ĠClassical
gaard
just
went
Ġpastor
ĠNI
oplasma
cycles
Ġillustr
Ġfountain
hib
illon
esk
Ġiodine
ĠBiological
Ġcollaborate
Ġturb
Ġsolidarity
quiry
sha
Bar
Ġmerchand
ĠDoppler
Ġdivide
Ġquart
Ð°ÑĢ
nov
Ġinterpreter
ĠStack
animate
vir
life
ĠCauc
chy
ĠColon
Ġconical
Ġgiants
Ġlumin
Ġassim
Ġdecomposition
fle
Ġlethal
Ġlud
eon
Base
ĠDecision
Ġimmers
carbon
Ġsurroundings
Ġevaluating
amide
Ġpathogen
media
attle
pora
affected
hook
à¸¡
Ġsentencing
ĠNapole
ausing
èī
orned
erved
Ġmonkeys
Ġconcurrent
struct
Roy
alg
×ŀ
tion
Ġabsorb
psych
ĠVa
iero
rique
ounty
æľ¬
arer
Ġgenetics
fore
Ġwaive
Ġ142
Ġhaz
Ġpyram
ãĥĥãĤ¯
ĠGhana
ocr
256
brahim
Ġcheap
balanced
rocy
bread
Ġinhalation
ĠAmazon
dz
hearing
airs
osomal
ĠPostal
modern
Ġrobber
Ġinvite
itiveness
Ġexcurs
endants
Ġverified
sequence
Ġpanc
edia
iera
ĠLakers
Ġhonorable
Ġrotating
Ġshaping
Ġadjust
ĠCycl
inia
äº
ahr
à¹
Ã°
stones
Ġarsenic
Ġtib
iaz
eleration
Ġforeground
å¼ı
Ġaster
ĠSpiel
Ġ×Ķ
Ġadhesion
Ġrewrite
ematic
¢
uciÃ³n
lev
Ġthi
Ġ568
Ġblowing
ifts
Ø¹
Ġtrailer
aha
opoietic
ĠCorner
×©
Ġtheirs
icals
etal
osition
Ġabnormal
uating
azu
burgh
Ġcertificate
Ġsignatures
yrus
ĠÐ¡
atinib
Ġsucked
Ġgram
Ġdiscipl
ĠHeather
ority
Ġnuisance
MA
ãĥŃ
Î¾
Ġkar
dorff
ĠLog
KO
Ġmanually
reck
ĠCorinth
Ġbombs
Ġrevoked
Ġheadlines
boarding
hex
Ġorientation
Ġdepths
bd
Ġglut
ĠHof
Ð¾Ð´
ĠRequire
cled
Ġ610
Ġchiral
ellee
Ġmole
major
games
brate
match
Ġlawn
effect
ĠDoctors
olor
Ġdipl
Ġplotting
Ġsentiments
fter
ĠConnection
program
itable
itism
usep
Ġá½
à¸ķ
Ġamazed
iste
Ġbroch
ĠCov
Ġnil
Ġembedded
Ġdiz
ë¦
api
icio
fork
irms
Ġoutlets
ĠSomeone
ĠComic
ashes
Ð¾Ñģ
Ġchatter
è´
Ġjournals
Ġunlimited
Ġbaking
grade
Ġbiochemical
otech
Ġrevelations
æ®
etes
Ġscenic
Ġ924
ĠHansen
hof
este
Ġswitches
Ġinjection
iffer
Ġamenities
ippets
essential
adm
Ġswallow
rans
Ġflatt
ĠSystems
Ġ143
aside
Ġchalk
Ġautomation
BF
utations
aji
Ġinfusion
isy
Ġtidal
ĠSci
oslav
Ġneutrality
ãĤ¿
Ġundef
Ġfloats
Ġblessings
ĠSpeech
Ġ554
ĠHTML
duly
hered
Ġcocoa
iod
asek
Ġtearing
FK
Ġstir
ĠBE
Ġmisdemeanor
ulfide
nex
Ġmedication
ĠClare
character
Ġforgetting
iman
Man
jÃ¤
die
Ġcollaborative
Ġformulations
hop
Ġabol
orta
ĠRac
Ġworms
press
epid
ĠpH
Ġintellectuals
ĠâĤ¬
Î³
èĩ
Ġhone
Ġvisualized
Ġvariables
Ġpissed
Ġtam
Ġclown
Ġbaked
Ġchefs
Î»
jug
ĠVeterans
Ø³
Ġ..
ĠDN
Ġantibiotics
ytic
Ġexhibitions
ĠPhosph
mouse
Ġnoisy
igation
ĠNames
ĠWriters
Ġih
Star
Ġcriterion
Ġemployer
ĠThought
ĠSwift
Public
Ġpity
Ġsaf
Ġaugmented
ruly
big
ĠAN
nee
vre
umbo
Ġgenomic
Ġcooling
Ġaureus
Ġobjection
renn
×ķ×
ief
ãĥ©
Ġnodes
etry
Ġfreak
unction
Ġstartup
Ġinvestments
beh
fection
dies
Ġhealing
Ġsne
allic
ucht
Ġclassmates
Ġslogan
parable
Ġdiscrepancies
rella
Ġcreamy
hing
ureus
dia
tagged
åı
Ġchannels
spect
ysis
Ġmyosin
imated
iency
title
iente
phones
Ġgenetically
ĠProgramming
Ġkits
Ġautomobile
weight
Ġemit
Ġclinically
prise
Ġinaccessible
Ġhelpful
ĠAus
Zone
opening
ĠLoad
bad
ĠEqu
zh
Ġbids
ĠNurs
Ġcations
Ġburn
achy
Ġinfra
ruption
iq
Ġsurplus
Ġpunished
Ġmembranes
éŁ
pts
Ġsuspicions
Ġcongrat
Ġfuse
Ġtenants
ãĥĳ
ilar
ĠMonth
ĠLebanese
flies
Ġfertilization
Ġcompassion
èĢħ
married
ĠÙĤ
Ġinterfering
Ġaroused
Ġdominates
ortion
VD
aligned
ensure
olation
aires
Äģn
ĠONE
Ġmanifestation
ĠVern
eping
gest
ĠChristie
Ġwr
chrom
idget
gov
ymph
ĠBeatles
hea
ÙĬÙĨ
ĠAlban
Ġconvict
Ġbolts
ĠPowell
Ġevaluate
Ġbroadcasting
forming
ĠMom
Ġharvesting
Ġcrashing
Ġvirus
raiser
Son
steine
Ġtrustee
ĠFlynn
ĠFind
Ġhematopoietic
Ġcouncils
ĠCollections
ĠCompar
Ġpeasant
ĠMAC
Ġreconcile
infected
Ġthym
Ġsergeant
Ġultr
Ġmyst
Ġelev
icides
Ġshouted
Ġadvisors
ãĥĭ
wl
isine
haus
num
ĠEthical
amboo
herent
oux
strength
Ġexpired
ĠBax
estone
ĠHim
Ġsalts
aciÃ³n
ilton
ĠSpr
Ġturnover
Ġenzyme
Wire
Ġll
mul
yx
ĠRi
Ġknives
onet
Ġ455
Ġdashboard
Ġion
à¸ĩ
Ġsheath
EX
åħ¶
Ġgentlemen
Ġoppressive
erring
ĠReady
untary
aphylococcus
fs
rict
ression
Ġbaseline
ĠAlleg
HOU
Ġhistor
fax
Ġlouder
Ġcompartment
Ġthrust
clean
rt
ircon
Ġtraction
ĠBarrett
telling
Ġplayground
Ġheating
ãĥŀ
Ġ480
Ġanalogy
Ġenact
ĠAub
odynam
ĠChile
Ġindict
analysis
Ġpivot
umping
ÏģÎµ
ĠHess
Ġxen
Ġexec
vergence
Ġ575
Ġestates
hin
ohn
fr
paration
Ġrecommend
Ġsensit
quel
ĠPD
Ġadjustment
will
lead
ĠTP
Ġtraitor
luent
Ġsideways
fried
Ġdecaying
Ġfeasible
Ġessays
ĠDictionary
Ġadren
ĠVietnam
Ġrelapse
ylation
ĠÎ¼ÎŃ
Scan
ĠLibya
Ġtub
assed
ĠVolks
config
Î¹
ĠChain
etitive
ilic
ÑĤÐ¾
ĠExperience
Ġslices
Donnell
Ġspectrometry
å½
athered
Ġautopsy
Ġrod
ĠPrevention
Ġnotation
imates
Ġinsurer
mons
Ġide
Ġswords
urrent
arms
gue
idic
ĠHaus
Ġgorgeous
ĠCCT
orers
itro
Ġsecreted
ĠMink
Ġfury
avier
lords
125
Daniel
ĠNav
Ġwal
Ġterminology
Ġshutter
osocial
ĠMidwest
ienne
è°
472
ãĤª
ĠDollar
Ġformatting
MI
ÅĽ
Ġtread
ç§
Ġfloral
Ġnail
ĠMam
Ġtopography
Ġassign
ãģĮ
Ġtrav
Sal
Ġmustard
ĠWelfare
Ġ497
pless
eker
Ġmattress
bay
Ġchant
Ġidi
ĠAve
Ġmicroscope
Ġ363
Ġballoons
Train
èĭ
faces
ĠFamilies
Ġcopyright
Ġundes
Ġpedestrians
ungle
ĠInteractive
Ġfulfillment
Ġwedge
ÐµÑģ
ayan
henyl
éĽĨ
Î¯Î±
anova
Ġscrambled
tree
iphatic
Ġclassifying
620
ross
Âº
hesis
offe
Ġmedals
Ġoneself
Ġmilestone
itti
ĠLack
Ġsec
alse
Ġdri
ĠMong
ĠProductions
imen
pite
uction
odium
Ġinactive
Ġspared
Ġinquired
Ġrubbed
Ġpurchases
ä¸ĸ
An
iculous
ĠComing
ichlor
eron
Ġlap
ĠEE
voir
ancock
Ġcodon
wb
Ġforgiveness
XL
edes
Ġpulls
Ġsustainable
idency
ĠBeg
Ġfancy
inging
stituted
serial
ocy
itos
comm
ĠTrue
give
Ġoutfits
Ġnemat
sto
éľ
Ġadherent
Ġmice
von
Ġsedentary
eking
Ġpione
Re
ĠXV
ĠFreedom
productive
mont
Ġoppression
propylene
Ġholders
Ġinherited
Ġsympath
Ã©ric
kit
Ġfishermen
ĠWillie
ĠPhilippine
ĠFight
riend
ouch
ez
Ġpartitioning
à¸
Ġinherit
ãĤĭ
Ġloneliness
ĠDevil
cit
ĠCoca
ĠTou
Ġ410
Ġwed
uchy
Ġagar
Ġpirate
printed
Ġseasoned
guns
ĠWaste
Ġpaddle
sw
ĠComment
ĠGarcia
ĠPlains
Ġintegrates
Ġworthless
ocracy
cert
holds
ĠIBM
abouts
Ġpear
Ġadhere
Ġcultiv
arson
Ġcontradictory
Ġencode
oded
Ġbrows
Ġinterviewing
array
Ã±a
ause
skin
Ġsocks
ĠCraw
Ġarbit
Ġgasoline
Ġdisrespect
number
ĠTut
lr
Ġannih
Ġmelted
ĠHollow
Ġdisbelief
forward
ĠVenice
Ġcarbohydrates
Ġembryo
pc
brance
ders
Ġmediator
ĠMold
aje
ateurs
ĠPeer
Ġtai
Ġrevise
ĠPBS
Ġcurves
roup
itimate
Ġdetained
olphin
astics
Ġmirac
itored
¾
Ġflowing
Ġspecify
heter
auses
ayers
jav
Ġconnectivity
riers
Ġuploaded
ĠButler
ĠWarm
Ġnationwide
ãĥ¼ãĥ
iley
Ġhungry
Ġoutbreaks
Ġhanding
ergic
Ã¦r
Ġretention
Ġtroph
roc
Ġmillennium
oustic
Ġlysis
ieve
Ġutility
ãĤ¿ãĥ¼
pee
stroke
neur
Ġpronounce
Ġfibers
Ġsuites
Ġfried
Ġdeclaratory
ellular
Ġcloning
SHA
ĠKoch
ÄŁ
Ġlobes
answered
Ġket
ogene
ahi
rb
Ġbutcher
éĥ¨
ĠFant
ĠAppl
ĠDemocracy
Ġvig
ĠMaker
ĠUtil
inhib
ĠSIM
transl
wheel
Ġmultic
oglobin
Ġprotocol
akov
along
Ġframing
ansen
Ġthrilled
ĠBrow
ruck
ĠShall
states
pre
Ġharmed
Ġslack
Ġassigns
à¸ļ
pod
ĠDenver
Ġinstallation
ï¼
Ġlogging
hene
Ġzur
isition
Ġcompile
Ġrot
psis
avy
Ġii
ibus
Ġacetate
upt
plings
uo
lick
Ġbronch
Ġstain
inar
Ġridiculous
ript
Ġpresidents
ĠAddiction
Ġliberties
ynthesis
Ġaccepting
Ġnit
ĠVin
Ġillustrate
ĠInstruction
Ġvomiting
Ġwidths
camp
ĠFirm
governmental
IA
ĠDag
ifen
Ġdissent
initis
anden
uned
ĠGMT
Ġwagon
Ð°Ð»Ð°
ĠHimal
Ġregulator
boards
ugar
irable
Ġstratification
ĠRFC
ĠPrix
ĠBeast
Ġnegotiating
Ġincarn
itative
ìĹ
aths
ĠBrasil
establish
ubert
unto
Ġregist
oire
itage
ophagus
Ġsecurely
ĠChance
Ġhomology
sembl
Ġnormalized
ãĥ¬
oat
fra
Ġcapacities
scope
ophys
bla
Ġrelaxing
seek
ĠâĢĺ
ousands
Ġapples
cence
si
Ġroast
Ġdesires
Ġimpedance
ellar
rivial
ĠChamp
Republic
ĠDonovan
ucid
wat
nai
Ġcyst
Ġstint
Î²
Ġverte
Ã±or
jack
Ġcartilage
Ġuntouched
rous
christ
Ġchecks
ãĤĴ
umar
inny
tle
text
Ġperpendicular
Ġlibr
Ġturbulent
Ġphotographers
Ġmuscles
vern
Ġextras
encies
hetamine
usta
Conv
Ġrefract
Ġeconomist
Ġinfectious
emi
Ġphysicist
ulative
Ġresolved
ĠProcess
lu
Ġdiffering
Ġrpm
Ġlaun
ynamics
ĠAgents
qua
ĠCorpor
kow
200
Ġdissociation
aty
Ġnun
Ġransom
Ġtract
Ġchees
Ġmigrating
ĠCli
ĠNK
Ġbrut
sect
Ġbliss
Ġappointments
ophilic
Ġquiz
Ġdelegate
ĠEasy
atte
Ġnotch
inberg
BN
til
Ġfleeing
æĺ
Ġredundancy
ĠNev
Ġdehydration
ropic
perse
Ġ178
lop
tw
ilers
was
Ġnud
ĠDownload
jen
Ðµ
ãĥĸ
Ġdances
ril
Ġmetabolic
Ġpamph
Ġskepticism
Ġinvalid
ollen
Ġworlds
Ġhomem
éĻ
ĠAhmad
assium
Ġsovereign
kb
Ġgonna
ãģł
cases
à¸ª
ĠPenal
rost
Ġactivists
Î¬
priced
hythm
Ġplayback
Ġnotions
ĠMic
Ġmeth
Ġcertainty
gins
ĠAnk
antha
inking
èĪ
yline
Ġconductor
Ġseizure
iron
stantial
imit
Ġnursing
Ġgestation
del
iry
Ġdomains
regulate
rison
Ġgardens
dehy
interpret
Ġattraction
uchs
Ġaccuracy
PG
sed
crib
ĠStores
IF
bris
olly
Ġpont
seeing
ermal
ĠPrinc
Ġindividualized
Ġlungs
Ġtac
Ġcoli
Ġaqu
jes
cler
Ġslept
abled
estic
aron
nae
ĠÃ©
ignon
å¼
Ġnic
Ġfulfilled
Ġcampaigning
Ġ620
Ġshaking
bent
apon
ĠWays
Ġxyl
plicated
ringer
ĠCay
Ġratt
Ġgroundwater
prov
Ã©ration
Ġwhip
iddle
ĠKane
Ġballots
Ġtrapping
icate
rency
Ġparasite
cki
inched
enthal
Ġsovereignty
pm
think
Ġsmear
Ġgripping
181
ĠCherokee
amation
conne
ĠCapitol
itÃ©
ochond
stood
lege
etica
ĠSuperior
irling
Ġrestless
ĠSale
Ġdysfunction
ĠLots
Ġsway
ĠChristina
ĠSheet
Ġinterstellar
Ġib
igm
uder
hus
Ġfax
ĠHappy
Ġaden
Ġoffenses
Ġsubmissions
ĠTriple
rank
riz
Ġfra
Ġuter
Ġoutreach
fig
ĠSuperintendent
ĠAug
Ġinflammation
Ġblonde
onne
ĠDeutsche
Ġamaz
Ġbudgets
Ġsocialism
Ġtrajectory
chts
Ġventilation
cyclop
Ġdiagonal
Ġneighbourhood
Ġcups
ograp
Ġoutcomes
iced
Ġprocessors
ĠWash
Art
Ļ
ĠSummit
Ġpaperwork
Ġnationalism
Ġaccessory
Ġbolt
inters
Ġpersecution
substant
ĠWings
Ġinfringement
protected
dra
Ġsplen
Ġwhist
rely
Ġaides
lys
Ġwithheld
As
ĠAurora
ÄĻ
ĠHolmes
tics
Ġflock
Ġsomeday
Ġobjections
quisition
Ġtandem
hedral
Ġions
ĠUSDA
Ġprism
sens
Ġaffiliate
Ġdivergence
ĠStephanie
Ġtem
istle
sible
ĠPray
alloc
Ġcurled
Ġurinary
Ġboosting
ĠAnyone
ĠDat
Ġhomogeneity
ĠWilder
Ġstimulate
Ġgastric
Ġjudging
rieve
Ġimperial
Ġsquarely
asures
ĠCurrent
bred
Ġdistinguish
edic
uchar
cknowled
Ġinferred
Ġprogrammes
Ġconjug
Ġpersists
ĠSams
Ġample
Ġtransitional
ĠJacksonville
Ïħ
ĠFloyd
Ġeverywhere
Ġpassions
Ġstabilization
annie
Ġmasses
Ġaddictive
Ġcontingency
visor
Ġevolves
Ġheadache
Ġalign
Ġmadness
Ġ401
Ġdans
Be
Ġlingering
Ġcontour
cost
Ġ111
Ġmacroph
Ġprompts
ĠBrock
Ġavenues
spoken
illy
Ġassumes
Ġheterosexual
Ġbrands
Ġvegetable
ĠQuestions
Ġcumbersome
Ġunreal
ĠElect
Ġsucks
gart
Ġinconsistency
ĠEverybody
Ġfost
ĠBread
Ġecology
Ġderive
Ġpivotal
Ġhandles
Ġinternally
Ġ426
ĠNewton
rule
aval
48
¸
444
Ġdeported
ĠTreat
Ġirrit
Ġmysteries
Ġhelmet
ĠPolitics
Ġannihilation
Ġsocio
Ġignorant
Ġderivation
Ġnominee
Ġcategorized
Ġtriangular
ĠÐº
Ġcommunicated
Ġanalys
endor
anse
Ġcrush
Ġfigur
ĠLub
Ġverification
Ġgest
Ġdistressed
elyn
Ġexcitement
èĢ
ĠConsidering
Ġdisruptive
rugu
Ġstartled
ĠPages
Ġprogrammed
Ġpers
Ġrage
Ġobservers
ĠWendy
Ġdoomed
Ġsofa
Ġscatter
Ġtill
Ġ477
rav
ĠPill
Ġtun
ĠTall
Ġskating
Ġincoming
culp
ĠLucky
ĠLetters
Ġimplications
ĠEthan
ĠAudio
Ġstimulus
Ġbun
ĠImprove
Ġrefrain
Ġdiab
acted
Ġdire
Ġquantitatively
established
Ġrm
site
bbing
Ġinsp
ĠÏĢ
Ġmirrors
ibilities
enties
Ġ352
Ġsnippet
Ġpickup
agging
Ġposing
Ġreversing
utively
Ġguiding
confirm
ĠOM
Ġconverts
Ġduplic
Ġ608
Ġtermination
Ġspoon
pal
Ġmentor
isot
Ġaccidental
ĠEditor
Ġsocioeconomic
Ġ429
ĠSacramento
Ġdilemma
Ġregimens
Ġthor
rifug
imi
ĠErn
Ġsummoned
Ġbabies
Ġeligibility
276
Ġexerts
Ġobligated
ĠLink
World
Ġlandscapes
Ġadapter
Ġ559
Ġdefect
ĠFirstly
ĠForward
Ġgarbage
held
Ġlegitim
ĠPictures
Ġdoctrine
Ġhalves
Ġpenetration
Ġ546
aleb
Ġprud
Ġconceivable
ethe
Ġ193
orer
Ġadjusting
Ġfrightened
ĠMask
Ġdetection
Ġ223
Ġpurported
ember
Ġ569
Ġ....
ĠGates
Ġremanded
igu
Ġuniformly
not
ĠPed
Ġbatch
brook
ĠHung
holding
Ġceramic
Ġbuckets
ĠLocation
It
Ġapost
Ġwrist
Force
Ġrelay
ĠPhot
ĠAutomatic
ä¸
Ġdetention
endent
ĠLak
ĠLucas
Ġradially
Ġlegitimacy
ĠQuint
Ġsummons
ĠGoogle
ĠAdding
utter
ĠEsther
Ġshredded
Ġarranging
Ġfu
Ġtaxation
Ġurges
Ġfreelance
Ġregimen
ĠObviously
dash
ĠHoney
ĠDas
åĽ
Ġcontiguous
entials
ĠMissing
Ġforaging
lli
Ġgrat
Ġcoded
Ġmasked
Ġthrilling
Ġpremie
Ġpipelines
Ġ273
Ġfict
Ġapprec
Ġindistinguishable
Ġenvision
ĠStrateg
ĠBesides
Ġexperimentation
Ġspr
Ġhemisp
ä½ľ
Ġdefe
Ġellip
æĭ
ĠElliot
Ġabbrev
Ġ×ĳ
Ġprevalence
Ġmolten
Ġintervene
Ġposting
Ġseller
Ġpixels
Ġevenly
abling
ĠAdvent
notations
seys
Ġintracellular
ĠSequence
Ã¹
ĠBayesian
Ġthriving
Ġspars
Ġspecifics
som
rels
Ġdab
Ġsexes
Ġstripping
Ġlineback
Ġerupted
Ġflowering
ĠEagles
Ġpact
ĠCongressional
cels
Ġnewest
Path
ĠSave
ĠSect
Ġfavors
ĠPoor
Ġcomplied
wd
Ġ321
odynamics
Ġpill
ĠDrain
Ġretal
Ġmanifest
Ġdesp
Ġpix
Ġowning
ĠLP
Ġstreng
Ġshocking
asian
Ġect
speed
Ġ507
rah
Ġresearching
Ġ287
Ġreasonably
ĠAdv
faced
Ġpractitioner
Ġsomehow
Ġknees
Ġspecialist
Ġinfinite
gn
Ġtouched
ãĤ¨
Ġ911
Ġ344
Ms
Ġspac
Ġgrac
ĠEnjoy
expl
Ġcontended
ettle
Ġsymbols
Ġ999
ĠAP
ĠLooks
ĠTheorem
Ġuniquely
giving
okin
Ġkisses
Ġrim
election
Ġimpurities
Tour
Ġexploratory
Ġpens
dates
Ġnetworking
Ġ197
good
Ġgifts
ĠKnowing
cb
Ġ425
Ġactivation
ĠJE
ĠSomers
hw
ĠStafford
Ġcharacterizes
ĠNormal
aird
Ġsuppressing
Ġ171
Ġmantle
Ġ291
Ġamine
some
Ġsubscribers
Ġgrading
inst
Ġdevelopmental
istics
assing
Ġveh
ĠGunn
ĠOste
Ġstealth
Ġtails
ĠMilk
ĠPetition
ellite
ĠWinnipeg
Ġmetro
Ġluminous
Ġyesterday
Ġservant
inee
ĠCheck
Ġfoods
Ġprotections
Ġcannabis
Ġlivestock
Ġpops
Ġjeans
Ġbio
Ġpetrol
Ġbol
Ġagenda
Ġstack
Ġdental
pler
def
Ġunfor
omod
Ġliv
term
ĠCary
iels
Ġmoot
Ġcontainment
Ġscaling
Ġrandomly
Ġsystemic
ĠBund
Ġozone
Ġcarp
ĠMeeting
ĠParm
aryl
Ġnond
Ġentangled
Ġbulky
ĠJoh
Ġexpansive
Ġpersu
Ġraging
idi
Ġcyclic
Ġgol
Ġfutile
igraphy
ĠReynolds
Ġink
III
Ġdip
Ġconcentr
Ġcardboard
idden
Ġstimulation
Ġaccorded
Ġelicited
Ġpartic
Ġcorresponded
ĠLith
Ġtwisted
Ġposit
Ġrightly
warn
ĠPromise
Ġinhibitor
Ġbelie
Ġdex
Ġ478
static
Ġninety
inche
Ġindexes
Ġhey
Ġdisob
ĠWade
ĠIrene
Ġexclude
Ġharmless
ĠTat
Ġlatent
ÑĶ
Ġmonde
Ġdiscord
ĠPix
Ġreel
Ġdetectable
400
Ġstyled
Ġtoys
ĠMaking
ĠCBC
Ġremind
economic
Ġkindness
Ġcommunicating
tom
tip
Ġimplicitly
Ġloudly
Ġoverload
Ġ373
Ġowes
Ġchalleng
Ġky
ĠOpinion
ction
bow
Ġinherently
Ġ231
Ġhus
ĠMechan
Ġsoftly
ĠSpar
Ġleaking
Ġrefin
å¾
neck
Ġinjustice
ĠGiovanni
ĠInstit
Ġpositioning
Ġpossesses
Ġissuance
259
Ġpunched
Ġturbulence
Ġcommend
Ġmens
Ġcompuls
Ġamidst
Ġdripping
Ġmanipulate
Ġsuccessively
iu
ĠDart
ĠPerth
Ġ540
Ġsan
Ġration
ĠNixon
Ġdeeds
Ġdecoding
Ġunders
actors
Ġhistories
Ġhoney
Ġgrim
Ġgripped
such
Ġtemp
Ġeffected
Ġheed
ĠGott
Ġswell
Ġethnicity
Ġunfortunately
Ġtal
Ġexports
Ġtrac
DC
Ġsche
stitutional
Ġshedding
Ġcompost
Ġdecor
Ġdisreg
Ġprolif
ĠLah
Ġdownloaded
Ġfoul
Ġpurge
Ġgraded
Ġmarg
ĠSteam
catch
Ġ306
abin
andel
ĠPriority
Ġvertex
Ġpornography
Ġbehavioral
Ġdynamically
ĠTip
Ġgloves
Ġcompos
Ġfrost
Ġtap
ernel
Ġwarmed
Ġschol
ĠEconom
Ġseu
Ġentities
Ġexpressive
ĠPhotos
series
ĠVine
ĠCalvin
Ġoverweight
Ġcontrovers
Ġbroker
Ġskipped
Ġstocks
Ġmentality
ubl
fabric
Ġemphasizing
ĠHTC
Ġundermined
Ġdecl
oter
ĠMaced
ÑĢÐ¸
Ġrider
Ġclients
Ġattaching
strom
Ġpredictions
oka
Ġconveying
Ġscree
ĠWong
urance
ĠDipl
Ġadmission
gro
È
yler
Ġbits
otta
Ġoriginating
Ġprecedent
ĠAltern
å¤
ĠDraw
Ġminim
Ġmonopol
Ġknights
ĠFrequency
Ġdumping
Ġ331
ĠBangladesh
ĠTot
Ġcomputational
Ġnorm
ĠIncrease
Ġdestined
etted
ĠWine
Ġiteration
Ġbeacon
Ġnutritional
Ã¼nd
ĠBrotherhood
ĠMI
Ġdisadvantages
Ġmemorandum
Ġheck
Ġ283
Ġmapped
Ġshack
Ġjud
Ġtransforming
Ġdetector
Ġlocker
oriented
Ġcoarse
ĠMine
Ġcomparisons
ĠClearly
Ġnasal
Ġstri
Ġinex
ĠPent
Ġupright
Ġadvers
ubicin
Ġraft
ĠRoland
ĠFull
Ġglowing
ĠAcute
osse
ĠContinue
Ġvibe
self
riot
ĠSummary
Ġneighborhood
Ġsitu
draft
ĠFuck
ĠNell
ĠCardinals
nas
ĠCorrespond
Ġprayers
Ġ512
ĠRoche
Ġ469
ÏĪ
Ġ561
Ġshrink
Ġcharacterizing
eness
ĠSpons
ĠStruct
Ġinsertion
ĠSpecifically
Ġclos
Ġnucleus
Ġbust
Ġsul
Ġbranched
Ġsatisfactory
ĠFro
Ġpolym
ĠVirt
ĠFib
Ġreticulum
Ġrecol
Ġresist
Ġdeletion
Ġpassive
Ġimproper
abad
Ġdoping
Ġpervasive
rin
Ġreminder
Ġconditional
á¼
Ġspreads
Ġdeline
Ġ605
Ġconfuse
Ġjoking
Ġrecycled
ĠVik
cens
Ġpleading
Ġghost
Ġepidemic
KA
Ġconfronting
ĠJedi
Ġcompl
ĠABA
Ġsci
Ġbeginnings
Ġcrim
Ġvoters
ĠTas
Ġscales
Ġcrack
ĠSec
activ
ĠParent
Ġconsciously
Ġje
Ġign
Ġfuck
¶
Ġidentifiable
Ġreferen
Ġshine
Ġmarvel
IS
Ġempirical
Ġstolen
Ġbak
ĠFold
Ġclarification
Ġinterventions
Ġpalate
ĠLastly
Ġadversely
Ġimpacting
Ġgranular
coat
Ġfreeze
Ð°Ñģ
Ġcontainers
Ġmug
Ġcheapest
Ġthrottle
0001
Ġshakes
ques
Ġburdens
Ġmultif
Ġintervals
Ġhearty
Ġthou
ĠCoun
Ġgravitational
Ġpiled
Ġsimulations
Ġmarginally
anim
Ġappreciate
Ġblended
Ġsadly
Ġgaug
ĠVery
Ġrupt
words
ĠLion
Ġcapsule
ĠApollo
Ġ388
Ġbetray
Ġ205
Ġwary
Ġpunches
anium
Red
Ġrebell
ĠAdministrative
Ġfertility
Group
ĠOfficers
NH
Ġbulge
Ġconfronted
Ġ188
ĠTay
127
ĠcafÃ©
Ġmonsters
Ġcaring
ĠKol
essment
Ġdeformation
ollo
Ġspectral
Ġ226
Ġcredibility
ĠAmpl
engo
ĠModel
Ġamplifier
Ġeased
Ġscept
ĠHumph
Ġascribed
Ġpersonas
Ġintegrity
Ġsymptoms
Ġlifes
ĠKum
ĠThereafter
ĠDevice
omic
Ġ278
Ġquint
ĠSenior
Ġske
urai
Ġsnaps
athed
Ġamendments
ÏģÏİ
ĠRoh
Ġsuf
Ġunsatisfactory
Ġpump
Ġphilanth
Ġalpha
Ġfreshwater
arians
Ġgeographical
thor
ĠDrag
CH
Ġflick
ĠOb
rst
Ġvivo
Ġconsiderations
ĠIz
Ġvalidated
Ġ216
Ġperipher
Ġaccelerating
ĠVera
Ġidentifying
fund
Ġcompiling
ĠPaper
Ġcleaned
Ġpixel
ĠMey
ĠLou
Ġmildly
ĠMalaysian
ëı
Ġpathetic
Ġinsecure
Ġharness
Ġintegrate
ĠShock
ÙĨØ§
Ġtraverse
Ġexacerbated
Ġannoy
Ġslim
ĠHir
Ġimagining
Ġleaks
ĠMissouri
Ġtray
Ġya
Ġunwanted
ĠMayer
Ġgotta
nexpected
Ġspokeswoman
ĠIranian
Ġurine
rift
generic
Ġencompass
Ġcooked
Ġgorge
Ġding
Ġliberation
ĠMoment
Ġhopefully
appoint
Ġspeeding
Ġabsorbing
Ġanalyst
ĠFifty
117
ĠÐĴ
oves
Ġvend
itte
ĠTM
Ġcelebr
Ġspeculate
Ġnationals
Ġbearings
ĠFeld
Ġpolyethylene
ĠTools
ĠÐĵ
Ġcomplications
Ġrouted
ĠMessenger
Ġbrowse
Ġpray
Ġcultivars
Ġnar
mod
Ġstakes
Ġparal
Ġrul
Ġpermits
Ġterrestrial
Ġfet
Ġfibres
avi
oufl
Ġvectors
Ġalk
ĠProcedure
Ġflushed
Ġgaze
Ġhypnot
Ġtaxable
×ª
Ġdiseases
ĠLibert
Ġverbal
htaking
Ġnomin
Ġlegends
computer
anu
Ġsingular
Ġensued
SL
users
mits
ificate
Ġrenal
arak
alli
Ġperceptions
Ġbottles
Ġsuff
Ġeasiest
Ġignoring
ĠCause
Ġpresumed
ĠTechnologies
Ġpersec
×Ĳ
ĠHelen
263
Ġtasks
Ġethn
ĠVersion
Ġfeedback
Ġpainful
Ġlaterally
Ġwidened
Ġcomposites
ĠGeo
ĠIowa
Ġanticip
Ġinfer
Ġutilize
ĠÏĥ
Ġkindly
ĠSandra
Ġrevive
ĠPaula
Ġglue
osure
MC
Ġcompensated
ĠEither
Ġmeanings
Ġparallels
Ġain
opold
Ġdram
Ġabuses
Ġalters
Ġspy
innati
Ġspilled
ĠSubsequent
Ġ271
Ġaffirm
Ġeuros
Ġapprove
Ġdrying
Ø°
lation
Ġeject
agi
Ġrefine
ĠBetty
acies
Ġwarn
Ġ394
ĠOliv
Ġliabilities
Ġtriv
ĠAV
important
Ġrepl
haps
Ġautonomy
ĠChip
resh
Ġaccountant
Ġcorrobor
Ġfacet
citing
Ġcontractors
leneck
Ġstrat
Ġharmful
ĠRab
Ġheavenly
Ġeternal
Ġradii
Ġinspire
azz
enas
ĠLuxem
elihood
Ġgraphical
Ġinco
Ġaz
Ġflags
Ġaffordable
vist
Ġdaddy
Ġflu
è§£
Ġavenue
Ġincapable
ĠDisease
ighting
yss
Ġhairs
Ġchips
artan
Ġinflation
Ġtolerance
Ġfiltered
Ġ237
stri
Ġacquittal
dt
Ġswamp
Ġtheology
ogenetic
Ġinvites
Ġbanning
Ġcompute
ĠMono
Ġcerebral
Ġtame
ĠCher
orient
ĠVenet
ĠSolomon
Ġstripes
Ġwondering
Ġfits
acting
iator
Ġhappiness
Ġviral
Ġconve
ĠLegend
Ġmisrepresent
Ġprojections
Ġideological
Ġmisunder
Ġrecipe
ĠByz
Ġfabricated
ĠTak
ĠAce
ĠPayment
Ġcontamination
ĠYahoo
Ġbinomial
Ġmarijuana
Ġtasting
Ġcohort
Ġspecification
LD
ĠQuestion
Ġspirituality
Ġexceptionally
Ġagon
Ġantip
ED
onent
tration
urches
rendan
ĠHalloween
Ġmotions
Ġimmigrant
Ġcontradiction
ĠZion
ĠTok
iflu
Ġillum
Ġflic
Ġoccurrences
ĠElaine
ĠWS
Ġ228
rike
filled
Ġcheating
ĠMethod
æľ
Ġcharming
ĠAddress
Ġinfiltration
Ġfooting
Ġveterinary
ĠHP
Ġwicked
ĠJi
ĠGenome
arker
oples
ĠAchie
ĠDisplay
ĠGaza
Ġdevise
Ġmisf
Ġ624
col
Ġsymmetric
coll
ĠSharon
inguish
Ġ440
Ġplanting
Ġplight
andidates
Ġempower
Ġlimiting
ĠSeeing
Ġurge
Ġsolicit
Ġdenying
Ġdeficient
ĠShipping
Ġcoward
Ġpays
Ġaccredited
ounced
releases
Ġting
zone
Ġsaddle
ĠPrevious
icos
ugu
rieved
Ġsweetheart
Ġricher
bib
Cl
ophag
idences
Ġarticulate
ĠBA
ĠBea
Ġpatriot
ushing
Ġtransparent
Ġautomatically
metry
Ġbisc
Ġoffseason
Ġbacterial
Ġtransfers
Ġtaller
elson
Ġ311
Ġvalidation
ĠSunny
Ġworthwhile
rehen
Ġliteracy
Ġunbelievable
Ġmoi
Ġrealism
Ġfairy
Ġbreathe
ĠAim
Ġswift
Ġeconomically
ĠErr
otional
ĠSox
ichael
Ġhesitated
Ġexcel
Ġrealities
Ġfoolish
Ġfixes
ĠRMS
Ġpants
Ġresponders
ĠAgent
Ġum
Ġ326
Ġextracting
Ġthinkers
ĠFreddie
uke
Ġsincere
Ġdaunting
ĠThank
ĠKingston
ĠWoods
ĠRF
ousing
Ġcontem
Î¼Îµ
ĠProbably
Ġpackages
Ġintroductory
isen
Ġlend
160
Ġestablishments
Ġbackbone
Ġgraduates
Ġtilted
Ġfalsely
Ġninet
etz
Ġbooked
ands
Ġfrank
comp
ĠSig
ĠCompare
Ġìł
Ġpoised
Ġameric
itely
Ġequation
Ġnotified
Ġsneak
Ġregulates
ilingual
Ġom
Ġcute
Ġarisen
Ġdomination
ĠStrategy
Ġversatility
Ġobstruct
Ġconfirmation
Ġsynchronized
Ġlia
Ġmanslaughter
Ġwoke
ĠSolid
ĠSug
ĠCollabor
Ġning
Ġsimulated
Ġmeta
Ġ595
ĠSaddam
Ġsecre
Ġpersonalized
Ġbirths
Ġreflex
Ġhabits
Ġreinforcement
AV
Ġsess
Ġ466
Ġexcuse
Ġabdominal
Ġexchanged
chem
Ġdivert
Ġ543
Ġrecess
links
ouk
408
Ġrabbit
hhhh
ĠSad
Ġobese
brid
aughing
azi
Ġapology
Ġquotations
Ġbunch
Ġcomposite
Ġadvocating
Ġsequencing
Ġviewpoint
Ġcommute
ÑĬ
ä¹
Ġuncon
azing
Ġauthorizing
Ġcentimeters
zen
Ġmotiv
trans
Ġseeds
Ġpalm
ĠSOC
Ġshoulders
ĠFlor
ĠKitchen
Ġbel
Ġconfigured
naire
Ġsquat
Ġapparatus
uning
iates
cont
journal
Ġnem
ĠTruck
Ġfuels
Ġ423
ĠFoo
Ġfactories
Ġslides
Ġparietal
Ġstatutes
Ġlenses
Ġrealizing
Ġaffiliation
Ġmotive
introduction
Ġhears
Ġspreading
ÐµÑģÐº
Ġ258
Ġspong
Ġtriangles
Ġmorphological
Ġdeformed
Ġwondered
æ²
vious
Ġemployers
Ġdiminish
ãĥ»
immer
ĠUCLA
Ø§ÙĨ
Ġacknowled
erve
Ġapert
Ġcue
ĠTwin
ĠDiseases
alleng
ĠHopkins
Ġtransplant
Ġcope
ĠSymposium
ĠValentine
Ġsanctions
Ġsurprisingly
asan
Ġparenting
Ġsummary
opia
á
Ġquer
Ġnephe
Ġanalog
arming
Ġordin
Ġstereotypes
Ġurging
Ġgiv
itical
Ġuncomp
ancer
Ġ144
orb
Ġuseless
Ġretaliation
Gene
Ġtextbook
Ġthumb
Ġfiref
Ġwounds
Ġdaring
Ġ494
ĠStanford
ĠFeatures
Ġprostitution
Ġasserting
tub
Ġmoderation
anguages
clamation
Ġperil
Ġ565
Ġprosper
Ġmutated
Ġreactive
Ġinviting
lla
Ġdei
ĠCemetery
thens
Ġsummed
Ġposter
ĠIL
zzi
adel
ĠBry
ĠBuzz
ĠRapid
lement
Ġsuck
Ds
ĠInterpret
raw
Ġhydroly
ĠBoris
ĠAlternatively
andro
Ġhitch
Ġsummar
Ġdisdain
urry
è
Ġweren
ĠTian
éĺ
Ġinitiation
rance
æĹ
ĠStevenson
ĠÂµ
icient
Ġgateway
olis
Ġsket
sa
ressing
avo
Ġhypotheses
Ġindicator
Ġbreathing
Ġadj
ounger
Ġescaping
Ġna
ĠThanksgiving
Ġmotivation
ĠDowntown
Ġcommittees
Ġadvise
Ġpreced
rored
ĠBooth
Ġobtains
Ġmunicipality
Ġenthusiasts
Ġleverage
ĠRC
Ġdiscrepancy
ĠNigeria
Ġspends
Ġcowork
Ġanecd
ĠTribe
Ġpasser
Ġstro
çģ
Ġlitres
Ġcongru
Ġactivism
Ġstove
Ø«
Ġcorresponds
Ġprofiling
Ġ357
ĠSyd
wer
useum
ĠGeneva
Ġavoids
odot
Ġblessed
Ġhelm
Ġexcuses
Ġlinebacker
Ġsar
Ġhypothesized
Ġsprang
Ġclinic
Ġ510
Ġintric
Ġuncontrolled
Ġprejudice
gement
Ġmonomers
ĠTul
Ġrestricting
erd
Ġpropagated
entry
aye
inv
Ġwink
Ġ391
arrays
Ġquantitative
Ġacrylic
Ġresponds
Ġsibling
Ġadolescence
Ġexits
cession
Ġglimpse
Ġrentals
ãģ¾
Ġnicer
Ġted
ĠAssociates
Ġcontrad
ĠPatriots
ĠIntroduction
Ġjoints
gus
Ġdiscloses
Ġdrops
Ġhumility
Ġslips
Ġdisjoint
ĠSinger
Ġferv
illation
Ġcreek
Ġevolutionary
fixed
Ġweeds
ĠMiz
Ġassessing
Ġlime
Ġhauled
Ġsimplify
Ġfabulous
ouncing
Ġbem
ĠAndre
Ġjer
Ġforums
Ġarsen
metics
Ġlifts
rax
chool
Ġreliably
emy
Ġglobally
Ġeukaryotic
Ġfeminism
Ġenvy
unners
drawn
Ġantic
kk
Ġenrollment
Ġru
books
Ġ×©
Ġliability
ĠVisit
Ġprosecutors
ĠAllison
Ġshrew
Ġpresidency
Ġconvin
Ġyelling
Ġroutinely
ĠBarton
Ġliber
Ġpsychologist
Ġcans
Ġoutline
Ġswings
Ġfundraising
Ġminimizes
ĠMegan
Ġbackup
Ġdecentral
Ġdining
Ġsi
Ġbum
Ġprospective
Ġace
Ġaesthetics
Ġimmunity
Ġbash
Ġrealization
Ġdeliber
Ġhopeless
Ġsteroid
Ġ265
ĠComparing
AG
Ġcoff
thel
ÐµÐ´
Ġmisunderstood
Ġbounce
Ġredist
gil
Ġalerts
Ġparabolic
Ġdoll
ct
Ġcurry
ĠCarib
Ġenumer
Ġbathroom
Ġcond
pace
Ġmonks
hide
Ġgam
ĠQi
ĠSz
Ġanx
ĠJung
Ġcreat
Ð¿
Ġangi
Ã¤t
Ġprobed
Ġterminate
Ġabrog
ĠAviv
Ġinvest
Ġgel
Ġactin
Ġ246
direction
Ġreacts
Ġresurrection
Ġquotation
ĠREL
htra
Ġbicy
Ġdictates
Ġtracts
Ġemotionally
ĠHousing
ĠEncyclopedia
Ġpracticing
Ġsignals
Ġ×Ĳ
Ġdisappearing
Ġ221
change
Ġendors
ĠBirth
loss
ĠSgt
ĠHolt
Ġdeed
Ġblasted
ĠÐŁ
Ġbast
Ġentail
éĩĳ
Ġ212
Ġunfortunate
Ġconsequent
Ġfiscal
ĠAK
ĠAboriginal
Ġisomorphic
heses
idis
Ġobst
Ġ438
Ġcourtroom
Ġcurric
ĠBenef
ĠLithuan
Ġfinder
raft
Ġcomfortably
Ġanomalous
FS
ĠNR
ĠLindsey
Ġapplicability
ÃŃo
Ġelectrophoresis
Ġsquash
Ġcrises
Ġflaps
ĠWir
Ġredeem
Ġnewcom
ockey
ĠTry
Ġexhibiting
Ġkicks
Ġjog
installed
ĠProblems
Ġgenome
Ġ299
ĠTrack
ĠFLAG
Ġ255
Ġneuro
ĠConstitutional
establ
weet
Ġcav
Ġdice
Ġphysicians
cling
Ġmicrom
Ġdeviation
Ġhangs
Ġki
Ġwom
ionine
Ġpedal
chu
Ġsam
Ġdragged
force
chÃ©
ĠRole
Ġsnar
Ġaxial
Ġcancellation
éģ
Ġinterfer
Ġlowers
Ġexagger
ĠVeteran
Ġbehaviors
imp
Ġarena
Ġfollicles
ĠBever
ARC
Ġsensory
Ġstarving
Ġmalf
Ġhugged
Ð°Ð²
ĠKom
ĠJake
Ġfantas
ä»Ĭ
Ġshiny
Ġembarrassing
Ġswiftly
Ġ607
ĠTah
ĠAbb
Ġarcs
ĠSaul
Ġtechn
Ġbrewing
Ġrepression
ksi
seed
Ġfright
ĠFritz
enda
ĠMyanmar
Ġmultiplier
Ġleak
Ġego
ĠNicolas
Ġbilateral
Ġrefe
df
The
Ġshouldn
Talk
igated
Ġscarcely
Ġtaxpayers
NN
ĠCreative
Ġgradual
tim
Ġtrailers
Ġdisg
ĠTerminal
Ġpharmaceutical
ĠKnock
ĠPon
Ġpowder
Ġpawn
ĠChrysler
Ġ380
Ġexemption
Ġendowed
Ġembraced
Ġstabilized
evol
ĠSiem
Ġcomputerized
à¸¥
ĠEyes
Ġce
Ġraises
ĠChrys
Ġstale
Ġcleanup
Ġcommuting
Ġdetach
Ġcaptive
Ġmilling
ĠHole
Ġconferences
ielder
Ġ176
Ġ499
arrison
ĠExit
ĠNim
Ġresin
Ġjuice
chlor
ĠAppe
Ġnorms
Ġelectrically
Ġcorne
Äĵ
Ġrenders
ĠKaplan
Ġfragmentation
Ġimmedi
Ġtense
vette
Ġokay
Ġ376
Ġpadd
Ġcondensed
Ġcompet
completed
ĠØ¨
ĠLily
ĠKy
Ġinvoke
Ġindemn
uncture
Ġlivelihood
Ġtempt
ĠSettlement
Ġrt
Ġsubtypes
ĠMonthly
Ġpeek
ĠPos
Ġdesperation
ĠMarx
arse
Ġug
Ġhaem
otted
Ġsandwich
Ġpunitive
shoot
Ġgent
pel
Ġhappily
Ġcos
Ġcomrades
gard
Ġbreat
ĠMichelle
Ġdistortion
Ġtransforms
ancies
Ġka
Ġundergoes
Ġsnapped
Ġvowed
Ġwholesale
ĠConduct
Ġsaturated
coe
Ġcredible
ĠÎļ
Ġ405
Ġintoler
ĠSAR
Ġspeedy
Ġcustomize
ĠScul
Î¹ÏĤ
ĠMeasurements
Ġkiss
ĠOlymp
Ġembodiment
Ġlov
Ġcant
nah
gio
ubern
ĠObs
erial
uga
Ġrecommending
Ġputs
×Ļ×
Ġenhancement
Ġgoats
Ġoverlapped
ĠTory
ĠIndianapolis
Ġ707
Ġstamp
Ġconvers
Ġpursu
CE
Ġendurance
Ġemail
opo
ĠSou
ĠGenetic
Ġassessments
Ġ238
appy
Ġtob
Ġ296
aturing
ivia
Ġlunch
Ġ162
Ġescal
ĠeBay
sem
ĠWorkshop
Ġsid
fun
ĠRah
Ġbeans
ĠReduction
ĠVent
Ġlipids
Ġdeleted
Ġterminated
Ġautonomous
ĠLocke
Ġbreastfeeding
cern
iska
ç¥
Ġurgently
Ġwireless
Ġappended
ĠPic
ĠReally
ĠRegular
Ä«
Ġunilateral
Ġmedic
Ġreckless
ĠUse
ĠMovement
Ġcrafts
Ġ168
ĠClean
Ġ468
Ġbreeze
awed
dden
Ġzw
Ġdispat
Ġpoultry
IR
ĠBegin
Ġupdates
ĠTours
cation
Ġguarantees
cross
Ġstaggered
ĠEdwards
fast
Ġsausage
Ġdistorted
onate
ĠTibet
ãĥī
Ġprev
Ġgreeted
plates
chr
Ġ615
Ġscanning
ĠGest
ĠDell
Ġbovine
Ġ307
ĠShar
ĠCobb
hig
Ġsomewhere
akia
Ġprivileges
Ġretrieve
Ġprotesting
Ġparticipant
Ġlimp
rican
ĠFerr
Ġindign
itle
Ġmisleading
æ¯
Ġaquatic
Ġballot
Ġcompetence
Ġducks
Si
Ġsatellites
Ġmethodology
ĠSleep
Ġmorality
ikan
Ġhealthcare
matched
Ġrallies
aughlin
Ġdeferred
Ġalleges
Ġfeas
sburg
ycle
ÏģÎ±
authentic
ĠDouble
Ġlogic
igens
Ġfurnished
Ġunnatural
Ġmistakenly
Ġhacking
Ġnos
Ġdefects
Ġá¼Ģ
Ġtextual
free
ĠHack
Ġpend
Ġcoloring
umption
Ġcalf
ĠGn
chal
Ð²
restrial
ĠÂ±
Ġ529
Ġhij
Ġconstituents
Ġ270
sur
ĠHang
Ġcytoplasm
Ġsickness
ĠvÃ©
ĠGL
Ġmiracle
Ġpromises
adoc
Ġwithholding
Ġeducate
ĠIgn
Ð°Ð·
Ġtragic
ĠMinn
ĠFellowship
igl
ĠAkt
better
Ġalternatively
Ġmoder
aned
ĠFH
inary
ĠPractice
Ġyacht
Ġlocking
Ġdenial
Ġsalad
ĠCCR
Ġlogged
ĠDana
Ġpurification
Ġ406
Ġlongitude
Ġhips
shake
Ġmiracles
TX
inks
ĠPL
rias
Ġlounge
Ġcraving
Ġyielding
Ġpeeled
pez
Ġmanifested
ĠSau
Ġabused
ĠThr
ĠClear
ĠMonday
bras
Ġsuppressed
link
ĠLag
ĠSpart
asured
Ġflashed
Ġresides
Ġmanners
Ġclums
enc
rw
Ġrestoring
ĠClaud
Ġadvising
Ġentrepreneur
Ġenlightened
Feed
Ġmovable
Ġbrilli
scientific
ĠAsc
Ġblending
ĠPearson
ersion
Ġtransitions
ĠHodge
Ġ320
ylon
ĠMarvin
ĠReport
MB
checked
ĠGov
Ġcapitalism
tested
Ġveins
Ġ136
ĠDub
Ġcellar
Ġcliffs
Ġty
Ġcuriosity
ĠHeroes
Ġsuction
ãģı
Ġparental
Ġmelancholy
Ġbounced
ĠCorb
ĠBengal
Ġspons
irit
Ġinterfere
lb
enging
Ġcovenant
Ġexecute
Ġlandlord
alls
Ġbrightness
Ġvalor
Ġimaging
Ġtoe
Ġoverse
Ġmailing
ĠLogic
Ġflats
Ġresem
æĮ
ĠHamm
Ġsimplified
Ġunofficial
Ġeliminating
ĠExpert
ĠPokÃ©mon
Ġparalle
Ġoversight
Ġsem
Ġbeforehand
ĠGraphics
keep
Ġrefinement
Ġcarb
Ġtea
Ġ702
Ġinnate
Ġwarehouse
brane
oplasmic
ĠDion
Ġsignaled
Ġblond
Ġstrap
Ġrevocation
Ġspectacle
Ġnovelist
ĠDamage
uffed
Ġtreasures
Ġ519
ĠProtest
ĠHours
Ġfraud
oho
ĠPreliminary
Ġdeput
ocated
ĠStud
artments
Ġbranching
ĠArn
ĠSah
Ġoven
Ġcher
Ġsubstant
oids
ĠRelease
ĠRoma
Ġpsychosis
ilipp
ĠNetworks
ĠFermi
Ġfrozen
Ġ214
arum
ĠExtract
Ġstacked
Ġflavour
ĠArticle
Ġmacroscopic
Ġrainy
Ġinfect
lip
Ġtorso
ĠKathleen
ĠEmb
unda
Ġarbitrary
Ġ612
Ġbasil
ĠKob
ĠMis
ĠController
ĠCir
Ġ421
itations
Ġcaut
owner
Ġhut
åĿ
ĠEthics
cil
Ġcoales
Ġrag
ĠPrincipal
Ġclient
Ġassistants
Ġconj
ako
Ġsod
Ġindebted
Ġtouches
Ġreacted
rums
Ġcompressed
screen
ĠDaw
Ġdisks
mag
Ġduplicates
ĠByr
raham
Ġunpleasant
Ġ322
agged
ĠTIME
Ġconstructions
Ġtrophy
Ġalleging
ĠBran
Ġcurvature
ĠRodgers
engers
zm
Ġoriginate
icable
Ġtheories
uscitation
Ġtil
odox
Ġfantasies
Ġannounce
Ġenjoys
estead
Ġenjo
Ġquadr
ĠCott
ĠDickinson
Ġoils
Ġ520
Ġphr
ĠCurt
ĠFi
Ġworrying
Ġattach
Ġnowhere
Ġshutdown
Ġtetra
ĠClimate
Ġcasino
Ġdoubly
Ġocc
FU
ĠCarlo
Ġdegraded
Ġreiterated
Ġisol
ĠHealthcare
ĠCompetition
ĠMinneapolis
ĠDepending
ussels
Ġinterrupt
Ġdistinguishable
ãģĭãĤī
mented
ĠMueller
inte
ĠWarrior
Ġbadge
ĠPAL
Ġcred
Ġnonlinear
qq
Ġadvocates
Ġscenarios
Ġboosted
Ð½Ðµ
Ġquir
ĠHawai
afia
Ġacceleration
Ġpedest
Ġshortcomings
ĠPAC
Ġanalyse
rass
ĠSophie
HC
ãģ£
Ġ395
Ġexposition
Ġnucleotides
Ġatheist
ĠMolecular
Ġrewritten
chi
itious
Ġtransparency
Ġhops
Ġthreads
fires
Ġraced
Ġparagraph
Ġinform
Ġcareful
Ġevaluation
Ġsatisf
Ġdumb
workers
Ġ850
Ġmisc
Ġterribly
ãĤ¹ãĥĪ
Ġstabilize
Henry
church
Ġenjoying
Ġforgotten
card
Ġresistant
ĠÃ©gal
Ġdiameters
Ġinsignificant
Ġheartbeat
vee
ĠRUN
Ġyields
Ġevolve
ometry
ados
Ġcinnamon
Ġni
Ġcommentator
Ġinefficient
Ġfloat
icious
atisfied
Ġparity
ĠRicky
ĠEngine
Ġclips
Ġextracellular
Ġphilosopher
Ġthermal
Ġconcentrating
ĠCT
Ġoutper
Dev
Ġdivis
Ġdrastic
Ġdegeneracy
ĠMove
ĠGetty
ĠBri
Ġinterrog
ĠCrick
Ġaffirmative
ĠSolutions
Ġdiscoveries
Ġwand
Ġinconsist
rou
ĠDocument
ĠLC
Ġcorre
ĠIntent
por
Ġtak
ĠClay
ĠRent
ĠCes
Ġscream
Ġevolution
Ġeyel
Ġascertain
idental
ĠOffer
Ġmast
Ġfined
ĠTravis
Ġcorrupted
ĠClar
ĠCamera
Ġingen
Ġsweeping
Ġwrists
ĠNotably
Ġregistration
Ġelucidated
Ġmediation
ĠFigs
Ġinterven
Ġhomolog
ĠVale
Ġpoured
Ġfiber
Ġgenomes
Ġhypert
Ġlei
ĠFact
ĠRhe
Ġprofits
ĠCertainly
Ġdifferently
Ġdepl
ĠStarbucks
ĠBoost
omet
ĠIntr
Ġembar
wire
itol
ĠElection
Ġobs
oplan
Ġstriving
Ġchaotic
ĠJudgment
Ġalleles
Ġcombinations
Ġrelent
Ġpoison
ĠColl
ĠTrump
Ġ338
ĠMining
riev
Ġchunks
Ġtempted
Ġapplicable
Ġdamn
Ġcommens
ĠChicken
soon
Ġreserv
Ġglorious
Ġtroublesome
rupt
Ġawe
ĠPosition
olve
alian
ĠHER
Ġcomplexity
Ġendings
Ġprecluded
ĠEva
rac
Ġ386
ĠButton
ĠLL
Ġtrousers
Ġsealed
ĠCaf
Ġpharmac
Ġimplic
Ġoutwe
jm
Ġcrisp
ĠPersonally
ounge
Ġemot
ĠTrustee
ĠOrigin
Ġlobbying
asionally
624
Ġduck
ĠContract
ĠUFO
Ġtracker
Ġloader
Ġye
gun
ometers
Ġweekends
ĠLiquid
Ġpropensity
Ġmyriad
uren
ĠÄ
Ġsmoothly
Ġinspections
ĠDegree
Ġpessim
Ġdescriptor
Ġguaranteed
Ġpathologic
Ġestrogen
Ġshar
Ġtrafficking
Ġapprehension
vie
Ġsubsection
Ġaudit
ĠCrypt
Ġhaunted
ĠLum
Ġlaughed
ĠRepresent
Ġles
Ġchurn
ĠDual
Ġsubtype
×ł
ĠEmploy
ĠMaintenance
Ġmosquitoes
Ġregimes
Ġshades
Îµ
Ġgener
ĠBuenos
Ġthigh
Ġio
ĠUnique
Ġblur
Ġlur
ĠPerm
ambled
Ġawake
Ġpiv
Ġ218
Ġimperative
ĠCDs
ĠExp
Ġremoves
mage
ients
ĠEdd
ĠLac
Ġaloud
Ġ336
Ġdislike
define
uno
ĠPom
Ġdisabilities
Ġgrasped
Ġ727
Ġequiv
ĠCous
ĠConnect
ĠLives
Ġcheering
Ġparadigm
Ġcurse
Ġtranscription
anni
Ġsteering
xico
Ġu
Ġstipulation
Ġanonym
Ġ414
Ġbacklash
Ġappropriately
Ġparole
cans
Ġestim
Ġembed
ĠICE
Ġcapitalist
Ġenorm
Ġdischarging
×Ļ
Ġfram
Ġdwarfs
ĠSask
Ġgeneralized
Ġslows
ĠBil
Ġrecommends
Ġfascinating
Ġaud
Ġprejudicial
ĠKathy
×ľ
Ġunnecessarily
Ġadmirable
Ġtenant
allo
ĠAL
ĠIrving
Ġcigarette
Ġdelet
Ġ325
ĠMex
Ġrope
Ġvolunt
Ġtopical
tem
Ġpricing
Ġapproximated
Ġwhereby
Ġinterpreting
Ġaest
ĠTransl
Ġperic
Ġpainters
ĠZar
ĠEther
ĠHicks
ĠHeights
ogr
Ġsimulator
Ġknowledgeable
ĠCath
Ġcrafting
Ġsavings
ĠDeborah
ĠUniform
ĠXen
Ġassertion
ĠSUN
Ġpent
icultural
ĠWare
Ġimbalance
Ġscr
osion
Ġmaterially
Ġprofessionals
chle
iens
ĠOpposition
ĠDob
odon
Ġtroubling
black
ĠFitzgerald
Ġprecip
Ġchemicals
amined
Ġsophistic
ismatic
ĠMOD
Ġ308
Ġunfamiliar
ĠPirates
Ġrecruit
ĠSchw
Ġbibli
Ġbiases
ĠMarkets
Ġwel
ĠMystery
ocker
Ġfav
Ġzip
Ġforemost
ĠMn
onso
ĠMadame
Ġsummation
Ġunspecified
ĠExternal
owe
Ġcyn
Ġgrad
alty
Ġpsychiat
Ġstimulating
Ġ304
Ġcooperative
ĠExper
Ġ303
Ġende
Ġmolded
ener
ĠAmber
Ġ465
rics
Ġcorrelated
Ġculinary
ĠGI
Ġcough
ĠEpisode
rbrace
Ġsweat
Ġwiping
Ġrespectable
perm
Ġfrightening
Ġunsett
Ġmorphine
164
Ġpipe
ĠIF
Ġstyling
Ġsocially
Ġpatents
Ġequals
Ġrelies
ĠMood
ĠBudget
ĠYale
ĠWeaver
Ġdefault
isl
posted
Ġrhet
ĠDiagn
ĠDEM
Ġpostulated
Ġalcoholic
itching
Ġretrospectively
Ġaffiliations
ĠPrograms
uting
Ġexplo
ĠPure
Ġ476
Ġcul
ĠBerger
ĠDefinition
bery
atta
Ġdealer
Ġfungal
grat
Ġdenote
Form
Ġthereon
Ġforts
Ġmoderator
Ġoverriding
Ġdrainage
Ġminus
Î±
Ġcolle
inin
Ġaffection
Ġtors
Ġkan
Ġhydroxy
Ġoffending
ĠProdu
NO
ãĤĵ
Ġ315
ĠMÃ¼ller
ĠCN
Ġstim
ĠOrders
ĠProf
rens
Ġtunnels
ĠEconomics
Ġsecurities
anco
osaic
Ġconversations
amental
Ġoverturn
heric
Ġtir
opausal
ĠMelissa
Ġplurality
idered
ĠStim
Ġassassin
ĠPepper
Ġnod
ĠJagu
Ġdistortions
ĠLD
ĠDee
eat
Ġdamned
Ġhomemade
iler
Ġ347
ĠTod
ĠUtt
Ġcanonical
ĠNapoleon
Ġreacting
ĠLex
Ġamorphous
Ġsimilarity
ĠSandy
sy
ĠKle
ĠØ¥
accharide
Ġscreenshot
Ġfascination
rz
char
Ġbrib
Ġcytoskeleton
ĠHuntington
ĠNep
ĠStrike
ĠStern
Ġquietly
ĠChron
Ġcommod
Ġaccompanies
Ïĩ
Ġnails
Ġadapting
Ġsupp
Ġcontradict
Ġdispatch
Ġchampagne
Ġimpaired
Ġstat
Ġfoil
ĠBarcelona
Ġwatershed
rais
Ġreboot
Ġcoated
emeter
Ġcircuits
sr
Rock
Ġafflict
Ġthief
Ġendeav
Ġ_
iked
Ġimpatient
cen
yk
ĠRoberts
Ġremoving
Ġreservations
ĠQuality
ĠPopulation
Ġpartitions
Ġappraisal
Ġinfused
Ġ158
Ġmold
Ġproviders
itecture
ropol
iona
ĠPole
pend
Ġundue
ĠSections
ĠEss
Ġlaps
Ġlesson
Ġprojection
Ġsquee
oxo
ĠAthlet
amo
Ġguerr
Ġtelescope
psi
Ġnoct
Ġtossed
Ġpie
oxy
ĠHR
Ġattracts
Ġter
Ġscheduling
Ġ431
ĠWindows
Ġthicker
ĠGuatem
Ġhet
ilst
ĠAff
Ġadherence
Ġindifferent
Ġlinguistic
Ġdimension
Ġresorts
Ġnome
Ġspleen
istor
Ġpict
ĠWhitney
Ġfierc
arta
329
Ġscreamed
Ġ498
ĠSke
Ġmigrant
Ġfing
rained
Ġprescription
ungal
Ġenqu
ĠEmer
rological
Ġfrequencies
ĠTransfer
Ġliberal
eanor
Ġrearr
Ġdisgu
Ġincomp
Ġindist
ĠRabbit
cium
Ġspheres
anus
Ġumbrella
Ġclocks
Ġmystical
Ġcatastrophic
ĠSqu
uters
Ġsimplest
Ġsourced
ĠFighter
Ġtangled
Ġcreeping
Ġmediates
Ġjunk
CRP
Ġbait
Ġbrushed
Ġhomologous
ĠPunjab
Ġdrain
Ġconfigurations
closed
ĠChin
Ġfools
Ġ545
ĠPoss
Ġpatterned
ĠÃĳ
changed
ĠPoints
Ġlords
Ġetern
ĠWrote
onstr
Ġpirates
Ġpassionate
Ġdefendant
Ġsmoked
Ġslowing
Ġskim
Ġbrisk
arching
Ġtreason
ĠCou
Ġfilaments
Ġcorrespond
Prep
rab
ĠEurop
ĠIntrodu
Ġbilling
ĠMAS
Ġsho
Ġpurpos
Ġdrag
Ġald
stream
Ġterrific
ibernate
Ġsymmetry
ĠLevin
ĠQuad
Ġgrains
ribute
Ð·
ĠGriff
Ġthereof
Ġpars
Ġconceptual
Ġdeprive
Ġhinted
Ġomin
Ġtrium
iang
Ġprecautions
Ġspiked
Ġsleeve
esting
serv
Ġelicit
Ġenjoyment
Ġ532
Ġprints
ĠSAM
Ġblurred
years
Ġ264
Ġfiery
ĠDim
ighed
ĠLap
Ġlocating
ĠGren
ĠFont
ĠWH
Ġextravag
othes
Ġnig
å¹
Ġmenu
Ġcavities
ĠThornton
Ġmerged
Ġundisputed
Ġsurprises
ĠMalaysia
haust
ĠVR
ĠInfrastructure
ublished
ĠSpeed
Ġindust
ĠShare
Ġcigarettes
Ġprogrammer
zie
Ġtranslations
ĠForrest
Ġnons
Ġreminded
ĠAgu
ĠMK
Ġont
Ġdeterior
Ġperceive
otypes
Ġdrilled
ĠSey
ĠTher
Ġrebut
Ġ451
cuts
Ġdenoted
ĠWeight
innings
Ġpouring
Ġsparing
Ġanxious
ĠContinental
ĠDew
pec
pick
ĠHas
Ġ541
Ġannoun
ĠSof
ĠChem
ĠSED
Ġaccum
Ġinmate
idea
ĠShang
ĠEph
ĠAu
Ġscan
Ġbundled
ĠBurke
ipotent
ĠSolo
chrotron
Ġbamboo
Ġ259
ĠIndigenous
Ġeconomical
Ġstandalone
ĠNacional
Ġhardness
Ġtumour
Ġspurious
coun
Ġacceler
ĠPeterson
Ġnovelty
ĠLorentz
Ġupgrades
Ġrefresh
Ġfastened
Ġscratched
ĠGR
Ġmassively
otic
Ġcustod
ĠHey
ĠPand
ĠRecently
Ġminiature
Ġmolding
sequ
Ġexcludes
Ġoracle
Ġshel
Ġtraumatic
Ġripe
Ġ284
Ġmodulation
ĠTib
video
Ġvoy
Ġscans
utions
omi
Ġbeneficiaries
ĠÃģ
Ġinvariably
Ġfirstly
ussion
Ġpains
Ġcanals
Ġadvancement
Ġoffence
Ġeyed
Ġstaring
Ġbalanced
ĠSixty
Ġmim
abol
ymoon
ĠAnglic
ĠFaculty
angling
Ġ636
ĠDD
Ġdistort
Ġshining
Ġsolemn
marked
ĠFen
Ġcrying
rifice
Ġsuperb
Street
Ġdisgusting
Ġalphabet
fect
professional
Ġdazz
ĠEnv
Ġfanc
Ġsacks
Ġexecutives
ĠComplaint
Ġinadequ
Ġethical
Ġremed
Ġauthentic
ĠLung
ĠCin
Ġpy
Ġcheerful
Ġconsult
Ġchopped
ĠProfessional
GI
ĠDreams
ĠDawson
Ġcurt
Ġoverwhel
ĠFortunately
Ġinj
ĠRescue
Ġtetr
ĠAND
Ġ449
ĠdÃ©
ĠPM
vement
ĠVictory
Ġriches
Ġvitamins
Ġtrad
Ġkissing
ĠExamination
Ġsoda
Ġcords
orse
